<unk>	0
<s>	0
</s>	0
.	-3.19706
,	-3.47877
|]	-3.47948
▁[|	-3.47948
▁the	-3.5109
▁to	-3.78872
▁and	-3.84537
Human	-4.04207
▁a	-4.09073
?	-4.18849
▁of	-4.24718
AI	-4.31549
▁you	-4.37769
:	-4.51038
▁in	-4.6075
▁is	-4.62479
'	-4.64983
▁I	-4.77579
s	-4.78344
▁can	-4.78773
▁that	-4.82362
▁for	-4.83168
▁The	-5.04833
▁with	-5.10665
▁or	-5.159
▁it	-5.20798
▁are	-5.24185
▁	-5.24942
▁between	-5.32755
▁be	-5.3357
▁on	-5.40926
▁AI	-5.41296
▁human	-5.42227
▁assistant	-5.4282
▁conversation	-5.44243
▁Response	-5.45444
▁Prompt	-5.45457
-	-5.4885
▁your	-5.53545
▁as	-5.56311
▁there	-5.5682
▁have	-5.60316
▁any	-5.62342
▁an	-5.68003
▁Can	-5.71357
▁What	-5.72525
▁Yes	-5.78488
▁me	-5.82447
▁about	-5.83261
▁It	-5.94076
▁use	-5.97019
▁do	-6.01447
▁if	-6.09161
▁by	-6.0965
▁"	-6.09968
▁How	-6.16461
▁other	-6.19369
▁some	-6.20166
▁also	-6.21156
▁this	-6.21185
▁may	-6.21508
▁help	-6.21944
▁from	-6.22677
▁more	-6.27081
▁using	-6.2731
▁not	-6.32505
▁like	-6.33653
▁That	-6.34678
"	-6.36974
▁should	-6.38191
▁how	-6.39659
▁Sure	-6.42073
▁You	-6.43618
!	-6.43852
▁such	-6.44486
▁Is	-6.48674
▁Do	-6.50898
▁their	-6.58026
▁what	-6.58695
▁symptoms	-6.59036
m	-6.59615
▁include	-6.59921
▁important	-6.60144
▁need	-6.63751
t	-6.66406
▁tell	-6.66652
▁example	-6.66832
_	-6.66948
▁but	-6.68533
▁know	-6.70244
▁used	-6.70365
▁which	-6.70887
ing	-6.74656
▁would	-6.76848
▁has	-6.78702
▁Are	-6.80981
▁could	-6.81772
)	-6.83534
▁my	-6.83849
▁will	-6.83855
▁data	-6.84336
▁However	-6.84802
▁they	-6.8625
▁This	-6.89697
▁code	-6.89809
▁when	-6.94491
▁want	-6.96254
▁make	-6.97381
▁at	-6.9745
▁was	-6.98574
▁specific	-6.98967
▁one	-6.99271
▁(	-6.9975
▁information	-7.00272
▁=	-7.00835
▁file	-7.01991
▁people	-7.02403
▁way	-7.03346
▁?	-7.06383
(	-7.07761
▁'	-7.08903
▁time	-7.11044
▁new	-7.12386
▁function	-7.143
▁all	-7.15091
▁In	-7.16598
▁these	-7.16969
▁good	-7.1781
▁effects	-7.20667
▁up	-7.23151
▁while	-7.25111
▁method	-7.25357
▁side	-7.2645
▁-	-7.2771
▁Have	-7.2777
▁syndrome	-7.28167
▁common	-7.28818
▁see	-7.29072
▁get	-7.29743
▁Some	-7.30919
/	-7.31956
re	-7.32242
▁create	-7.32744
▁different	-7.32903
▁through	-7.33152
▁condition	-7.33821
▁before	-7.34872
▁take	-7.35317
▁them	-7.35844
▁set	-7.3594
▁into	-7.362
▁anything	-7.37437
▁type	-7.37471
▁been	-7.38635
▁who	-7.38972
▁many	-7.39505
▁doctor	-7.39707
▁else	-7.40562
▁One	-7.40917
▁best	-7.40933
▁treatment	-7.41235
()	-7.41444
▁cause	-7.4202
▁A	-7.4283
▁give	-7.43099
▁work	-7.43187
▁There	-7.44169
▁medications	-7.45819
▁its	-7.46231
▁possible	-7.46786
▁taking	-7.47385
▁medication	-7.47385
▁out	-7.48307
▁treatments	-7.48462
▁try	-7.4905
▁then	-7.49153
▁provide	-7.49405
▁does	-7.49779
▁think	-7.49944
▁sure	-7.50036
▁no	-7.50055
▁value	-7.50925
▁If	-7.51437
▁blood	-7.51536
▁each	-7.53229
▁For	-7.54264
▁prevent	-7.55308
▁question	-7.55551
▁two	-7.5576
▁so	-7.56031
▁disease	-7.57991
▁error	-7.58617
▁`	-7.60001
▁certain	-7.60187
▁number	-7.60943
▁Additionally	-7.63428
▁find	-7.63689
▁having	-7.64438
▁following	-7.64655
▁most	-7.64776
▁well	-7.65885
▁explain	-7.65886
▁available	-7.66543
▁check	-7.66994
▁sense	-7.67321
▁experience	-7.67445
▁makes	-7.67716
▁medical	-7.67892
d	-7.6829
▁risk	-7.68507
▁add	-7.68516
▁{	-7.68804
▁than	-7.68908
▁being	-7.6891
▁issue	-7.69512
▁where	-7.69613
▁great	-7.69914
▁options	-7.72995
▁system	-7.73901
▁helpful	-7.75424
▁list	-7.75692
▁course	-7.76316
▁class	-7.76754
▁changes	-7.77095
▁we	-7.77153
▁trying	-7.77422
▁object	-7.78066
▁therapy	-7.7901
▁No	-7.80059
▁cases	-7.803
▁Okay	-7.81076
▁including	-7.81173
▁To	-7.82285
▁only	-7.82775
▁pain	-7.83475
▁C	-7.83711
▁access	-7.84046
▁```	-7.84626
▁process	-7.84647
▁those	-7.8524
▁user	-7.86172
▁over	-7.8695
▁first	-7.87742
▁might	-7.88062
▁genetic	-7.88264
▁sounds	-7.89273
▁usually	-7.90014
▁high	-7.90299
▁name	-7.9042
▁healthcare	-7.91088
▁improve	-7.91172
▁several	-7.91535
▁multiple	-7.91802
▁during	-7.91881
▁both	-7.9228
▁someone	-7.92406
▁tried	-7.93202
▁factors	-7.9357
▁They	-7.93575
`	-7.94031
▁typically	-7.94696
▁life	-7.94722
▁after	-7.95147
▁why	-7.95225
▁wondering	-7.95255
▁potential	-7.96544
▁few	-7.96629
▁Would	-7.97501
ve	-7.97575
▁depend	-7.98267
▁body	-7.98504
▁long	-7.98667
▁without	-7.98917
▁person	-7.99351
>	-7.99398
▁reduce	-8.00437
▁avoid	-8.00869
▁same	-8.00889
▁}	-8.01718
▁support	-8.0259
▁questions	-8.0304
▁app	-8.032
▁sentence	-8.03428
▁Here	-8.03624
▁string	-8.0388
▁keep	-8.04196
▁interesting	-8.06022
▁disorder	-8.06754
;	-8.0696
▁array	-8.07047
▁given	-8.07189
▁command	-8.07582
▁online	-8.07854
▁diet	-8.07955
▁change	-8.08211
▁text	-8.08562
▁physical	-8.08637
▁values	-8.09504
▁lead	-8.09559
▁health	-8.09812
▁manage	-8.1019
▁types	-8.1048
▁case	-8.10664
▁Of	-8.10893
▁based	-8.109
▁1	-8.10914
▁option	-8.11157
▁still	-8.11161
▁Injection	-8.11329
▁language	-8.11333
ll	-8.12246
▁recommended	-8.12429
▁increase	-8.13102
▁cure	-8.1319
▁am	-8.13251
▁his	-8.1326
▁often	-8.13925
▁Another	-8.13954
▁India	-8.14196
▁caused	-8.15721
▁don	-8.15784
▁issues	-8.15853
▁known	-8.15934
▁test	-8.16218
▁message	-8.16242
▁cancer	-8.17092
▁causes	-8.1734
▁popular	-8.17435
▁website	-8.17547
▁surgery	-8.17895
▁start	-8.18445
▁These	-8.18933
▁But	-8.19528
▁skin	-8.19586
▁even	-8.19867
▁<	-8.19998
▁means	-8.20101
▁just	-8.20306
al	-8.20945
▁better	-8.21691
▁ensure	-8.21948
▁called	-8.21972
▁ways	-8.21996
▁resources	-8.22142
▁please	-8.22283
▁necessary	-8.22464
▁element	-8.225
▁table	-8.22685
▁tests	-8.23524
▁thing	-8.23939
▁always	-8.24271
▁working	-8.24693
▁development	-8.26459
▁problems	-8.26577
▁property	-8.26976
▁conditions	-8.27313
▁within	-8.27914
▁project	-8.28109
▁server	-8.2897
▁learning	-8.29132
▁files	-8.2927
▁application	-8.29513
▁And	-8.29799
▁trouble	-8.29945
▁recommend	-8.30192
▁provider	-8.30576
▁2	-8.31003
▁heart	-8.31033
▁individuals	-8.31068
2	-8.31157
▁look	-8.31247
▁own	-8.31375
▁Python	-8.31575
▁rare	-8.31747
▁assist	-8.3177
▁As	-8.31855
▁topic	-8.32194
▁day	-8.3224
▁key	-8.32511
▁research	-8.3305
▁go	-8.33097
▁database	-8.33398
▁Then	-8.33413
▁allows	-8.33617
▁depends	-8.33678
▁control	-8.33708
▁related	-8.34282
▁problem	-8.34332
▁form	-8.34634
▁various	-8.34756
▁correct	-8.35296
▁under	-8.35397
▁idea	-8.35423
▁dose	-8.35577
▁getting	-8.35611
▁suggestions	-8.36502
▁follow	-8.36982
▁involves	-8.37574
▁variable	-8.37645
▁severe	-8.37882
▁individual	-8.38324
▁loss	-8.38417
▁complications	-8.38421
▁image	-8.38658
▁size	-8.38795
▁something	-8.3929
▁really	-8.39385
▁checked	-8.39683
▁order	-8.39772
▁Why	-8.40322
▁associated	-8.40765
▁haven	-8.40831
▁history	-8.41361
▁properly	-8.41611
▁Thank	-8.41811
▁content	-8.41894
▁world	-8.41962
▁another	-8.42745
▁much	-8.42746
▁others	-8.42903
▁were	-8.43095
▁range	-8.43414
▁done	-8.43419
".	-8.43889
▁water	-8.44617
▁open	-8.44623
▁looking	-8.44694
▁down	-8.4474
▁column	-8.44835
▁had	-8.44847
▁healthy	-8.4486
▁input	-8.45336
▁instructions	-8.45656
▁right	-8.45668
▁kind	-8.45813
▁field	-8.46068
▁affected	-8.46607
▁making	-8.46625
▁program	-8.46657
▁he	-8.46819
▁treated	-8.47141
▁around	-8.47285
▁return	-8.47311
▁3	-8.47519
▁things	-8.47587
▁risks	-8.47657
▁levels	-8.47754
▁page	-8.47787
▁diagnosed	-8.47816
▁methods	-8.48603
▁food	-8.48855
e	-8.48974
▁Java	-8.49269
▁show	-8.49298
▁result	-8.49539
▁affect	-8.49769
▁While	-8.49834
▁Well	-8.49879
▁made	-8.49988
▁select	-8.5024
);	-8.50362
▁taken	-8.50742
▁weight	-8.50766
▁understand	-8.50777
▁programming	-8.50877
▁children	-8.51531
▁treat	-8.51785
▁version	-8.51861
▁skills	-8.51899
▁$	-8.52039
▁mind	-8.52318
("	-8.52436
▁considered	-8.52485
ed	-8.52669
▁social	-8.53055
▁personal	-8.5307
▁regular	-8.53335
▁able	-8.53537
▁search	-8.53608
▁current	-8.53886
▁instead	-8.54161
▁energy	-8.54185
▁vary	-8.54217
▁learn	-8.5447
▁line	-8.54638
▁prescribed	-8.54675
▁three	-8.54676
▁service	-8.54702
▁Generate	-8.54728
▁When	-8.54728
▁tips	-8.55015
▁view	-8.55607
▁because	-8.5578
▁web	-8.56413
▁query	-8.56603
▁Great	-8.56653
▁area	-8.56814
▁advice	-8.56958
▁pressure	-8.57487
▁features	-8.57509
name	-8.57636
▁professional	-8.5817
▁job	-8.58502
▁our	-8.5856
▁needs	-8.58836
▁difference	-8.59003
▁Treatment	-8.59055
▁very	-8.59157
▁offer	-8.59215
▁her	-8.59276
▁become	-8.59543
▁determine	-8.59614
▁gene	-8.59705
▁Which	-8.60177
▁Create	-8.60226
▁inherited	-8.60293
▁concerns	-8.60294
▁run	-8.60441
▁performance	-8.605
▁users	-8.60657
▁So	-8.60681
▁small	-8.60845
▁running	-8.60883
▁call	-8.6092
▁safe	-8.61164
▁back	-8.61277
▁doesn	-8.61317
",	-8.61431
▁infection	-8.61543
▁special	-8.61682
▁works	-8.6181
▁overdose	-8.62061
▁services	-8.6248
▁remove	-8.6268
▁muscle	-8.63771
▁5	-8.63801
▁benefits	-8.63822
▁enough	-8.63892
▁read	-8.642
▁next	-8.64258
▁elements	-8.64494
▁too	-8.64568
▁welcome	-8.64641
▁creating	-8.64676
▁suggest	-8.64968
▁difficult	-8.64975
▁affects	-8.65098
▁software	-8.65245
▁technology	-8.6535
▁event	-8.65445
ly	-8.66061
▁model	-8.66169
1	-8.6657
▁Android	-8.66749
▁due	-8.66852
▁effective	-8.67086
▁library	-8.67309
▁computer	-8.67317
▁account	-8.67407
▁Certainly	-8.6799
▁developing	-8.6799
▁products	-8.68212
▁Google	-8.685
▁date	-8.68506
▁causing	-8.68628
▁color	-8.68757
▁point	-8.68881
▁names	-8.68893
▁foods	-8.69001
▁attention	-8.69035
▁say	-8.69821
▁custom	-8.69847
▁customer	-8.70106
▁First	-8.70192
▁consider	-8.70522
▁serious	-8.70581
▁age	-8.70717
▁low	-8.70728
▁money	-8.70753
▁found	-8.70777
a	-8.70785
▁difficulty	-8.71035
▁API	-8.72056
▁impact	-8.72496
▁format	-8.72563
▁contact	-8.73384
▁B	-8.73687
="	-8.73779
▁infections	-8.73924
▁damage	-8.74325
▁statement	-8.74405
▁testing	-8.74555
▁words	-8.74591
▁button	-8.74628
▁here	-8.74999
▁talk	-8.75026
▁Quora	-8.75174
▁definitely	-8.75339
▁request	-8.75673
▁memory	-8.75679
('	-8.75812
▁cell	-8.75897
▁true	-8.76083
▁store	-8.76094
▁growth	-8.76198
▁location	-8.76247
▁generally	-8.76644
▁unique	-8.76768
▁large	-8.77237
▁device	-8.77432
▁quality	-8.77467
▁nausea	-8.77659
▁amount	-8.78018
▁update	-8.78444
▁exercise	-8.78478
▁diagnose	-8.78495
▁variety	-8.78766
▁require	-8.78899
▁dosage	-8.79061
▁feel	-8.79104
▁cells	-8.79155
▁environment	-8.79316
▁output	-8.79686
▁address	-8.79793
▁safety	-8.79798
▁main	-8.79944
▁handle	-8.79986
▁public	-8.8146
▁years	-8.81506
▁non	-8.81626
▁countries	-8.81643
▁T	-8.81658
are	-8.81665
▁currently	-8.81692
▁plan	-8.82007
▁liver	-8.82019
▁company	-8.82114
▁family	-8.82243
▁consult	-8.82508
▁child	-8.82644
▁deficiency	-8.82652
▁pass	-8.83067
▁provides	-8.83522
▁business	-8.83533
▁media	-8.83564
▁Thanks	-8.83627
to	-8.83807
▁specifically	-8.8417
▁women	-8.84252
▁already	-8.84476
▁seek	-8.84488
ic	-8.8449
▁setting	-8.84583
▁focus	-8.85074
▁brand	-8.85075
▁security	-8.85282
▁management	-8.85432
▁JavaScript	-8.85434
▁HTML	-8.86019
▁install	-8.86036
▁curious	-8.86096
▁activities	-8.86254
▁eye	-8.86283
▁place	-8.86384
▁display	-8.86841
▁10	-8.86954
▁examples	-8.86981
▁allow	-8.87112
▁settings	-8.87196
▁once	-8.87231
▁develop	-8.87405
▁SQL	-8.87603
in	-8.87656
▁objects	-8.87699
x	-8.87793
▁brain	-8.87839
▁import	-8.87936
▁lifestyle	-8.87937
▁build	-8.88024
▁appropriate	-8.88181
▁specify	-8.88194
▁errors	-8.88694
▁interested	-8.89172
▁parameter	-8.89327
▁managing	-8.8946
▁CSS	-8.8957
▁interact	-8.8962
▁phone	-8.89721
▁government	-8.90016
▁practice	-8.906
▁supplements	-8.90741
▁ask	-8.90766
▁kidney	-8.90932
▁He	-8.91091
▁care	-8.91149
▁local	-8.91405
▁lot	-8.91435
▁[	-8.91496
▁approach	-8.915
▁home	-8.91694
▁natural	-8.91709
▁numbers	-8.91733
▁word	-8.91839
▁email	-8.91882
▁//	-8.91938
▁let	-8.92476
▁useful	-8.92566
▁strong	-8.92647
▁starting	-8.92746
3	-8.92774
▁short	-8.92852
▁tools	-8.929
▁away	-8.93107
▁fix	-8.93544
▁group	-8.93612
▁mutations	-8.94018
▁yet	-8.94098
▁power	-8.94105
▁product	-8.94438
▁+	-8.94539
▁results	-8.94638
▁occur	-8.94715
▁response	-8.9491
▁level	-8.9503
▁did	-8.95323
▁combination	-8.95366
▁students	-8.95427
▁role	-8.95468
▁click	-8.95648
▁Does	-8.95812
▁path	-8.95916
▁top	-8.95947
▁convert	-8.96084
▁overall	-8.96348
▁properties	-8.96431
▁directory	-8.96486
▁vomiting	-8.96821
]	-8.96949
▁believe	-8.97124
▁design	-8.97169
▁X	-8.97272
▁proper	-8.97361
▁write	-8.97556
▁behavior	-8.97566
▁loop	-8.98041
c	-8.98238
▁P	-8.98283
▁items	-8.98295
▁complex	-8.98437
▁easy	-8.98527
▁breathing	-8.98558
▁connection	-8.98581
▁future	-8.98708
▁alcohol	-8.98735
▁steps	-8.98738
▁every	-8.99017
id	-8.99188
▁free	-8.99235
▁state	-8.99407
▁4	-8.99442
▁choose	-8.99603
▁outlook	-8.99633
▁aware	-8.9966
▁needed	-8.9968
▁URL	-8.99816
▁Describe	-8.99945
▁Once	-9.00064
▁identify	-9.00239
▁commonly	-9.00271
com	-9.00338
▁actually	-9.00394
▁ability	-9.00411
▁end	-9.00439
y	-9.00682
▁light	-9.00837
▁vision	-9.01048
▁network	-9.01113
▁characters	-9.01139
▁less	-9.01178
▁Unfortunately	-9.01236
▁emergency	-9.01353
▁precautions	-9.01511
▁cannot	-9.0157
▁PHP	-9.01578
▁hand	-9.01584
▁part	-9.01645
▁double	-9.01705
▁Write	-9.01731
▁areas	-9.01751
▁severity	-9.01904
▁communication	-9.01951
▁last	-9.01993
▁similar	-9.02205
▁thank	-9.02305
▁systems	-9.02414
▁avoiding	-9.02615
▁Interesting	-9.03307
▁country	-9.03471
▁tasks	-9.03535
▁increased	-9.0383
▁storage	-9.03878
n	-9.04111
▁pregnancy	-9.04298
▁events	-9.04299
▁higher	-9.04352
▁self	-9.04498
▁solution	-9.04953
▁sleep	-9.05075
ary	-9.05176
▁positive	-9.05293
▁space	-9.05332
▁activity	-9.0534
▁script	-9.05481
▁exam	-9.05505
▁happy	-9.05743
▁significant	-9.0584
▁print	-9.05986
i	-9.06142
▁Absolutely	-9.06171
▁simple	-9.06304
▁story	-9.06468
▁pattern	-9.06596
▁stress	-9.06767
▁character	-9.06841
▁patients	-9.0698
▁fatigue	-9.07251
▁JSON	-9.07338
▁functions	-9.07433
▁instance	-9.07489
▁fever	-9.07493
();	-9.07695
A	-9.07696
▁seems	-9.0798
▁Let	-9.08031
▁installed	-9.08061
▁applications	-9.08192
▁Indian	-9.08431
▁together	-9.08457
▁parent	-9.08462
▁adding	-9.08539
▁source	-9.08706
▁configuration	-9.08806
▁replace	-9.09159
▁guide	-9.09219
▁mean	-9.09294
▁per	-9.09553
▁package	-9.09701
▁year	-9.09997
▁must	-9.1001
▁single	-9.1028
▁2.	-9.10392
▁helps	-9.10462
▁component	-9.10718
▁x	-9.10818
▁attribute	-9.10842
▁position	-9.1089
▁apply	-9.11214
▁details	-9.11302
▁action	-9.11354
▁ever	-9.11549
▁reasons	-9.11569
▁understanding	-9.11615
▁come	-9.11649
lying	-9.12187
▁times	-9.12342
▁immediately	-9.12386
▁perform	-9.12513
▁uses	-9.12546
▁syntax	-9.12682
▁S	-9.12692
▁relationship	-9.12729
▁industry	-9.13018
▁tool	-9.13177
▁Who	-9.13232
▁default	-9.13328
▁module	-9.13378
▁required	-9.13384
▁machine	-9.13548
C	-9.13614
▁1.	-9.13832
▁negative	-9.13984
▁love	-9.14112
The	-9.1441
▁groups	-9.14417
▁limit	-9.14463
▁companies	-9.14509
▁education	-9.1452
▁stay	-9.14726
D	-9.14748
▁clear	-9.14999
▁define	-9.15212
▁whether	-9.15561
▁Name	-9.15584
▁generate	-9.15781
▁diagnosis	-9.15851
▁seizures	-9.15934
▁patient	-9.16063
▁play	-9.16245
▁hair	-9.16395
▁study	-9.16402
▁she	-9.16417
).	-9.16576
▁further	-9.1676
▁early	-9.16788
▁3.	-9.17096
▁either	-9.17152
▁stored	-9.17163
▁programs	-9.17232
▁lower	-9.17585
▁apps	-9.17622
▁until	-9.17863
▁i	-9.17869
▁additional	-9.17934
▁writing	-9.18038
▁rate	-9.18096
▁techniques	-9.18103
▁now	-9.18367
▁particular	-9.18391
▁devices	-9.18435
▁save	-9.18886
▁cost	-9.19033
r	-9.19132
▁websites	-9.19308
=	-9.19764
▁exactly	-9.19813
▁background	-9.19841
▁easier	-9.19843
▁maintain	-9.19939
l	-9.19976
▁row	-9.2018
value	-9.20605
▁off	-9.2061
▁fields	-9.20695
▁checking	-9.20732
▁takes	-9.20772
▁document	-9.21018
▁English	-9.21063
▁answer	-9.21106
▁correctly	-9.21238
▁pregnant	-9.21259
▁drugs	-9.21263
▁situation	-9.21302
▁team	-9.21395
▁real	-9.21537
▁parameters	-9.21595
▁variables	-9.2174
▁studies	-9.21809
▁training	-9.21941
▁yourself	-9.21971
▁market	-9.22086
▁book	-9.22228
▁against	-9.22427
▁structure	-9.22544
▁dizziness	-9.22714
▁feature	-9.22837
▁send	-9.22952
▁remember	-9.23285
▁books	-9.2331
▁video	-9.23417
▁occurs	-9.23529
▁created	-9.23595
▁left	-9.23622
▁step	-9.23693
▁retrieve	-9.23812
▁diarrhea	-9.23843
term	-9.24078
▁ones	-9.24105
▁algorithm	-9.24116
▁general	-9.24469
▁going	-9.2451
▁From	-9.24697
▁achieve	-9.24733
▁measures	-9.25152
▁movie	-9.25283
▁Windows	-9.25831
▁diabetes	-9.25883
▁includes	-9.26061
▁disorders	-9.26189
▁bleeding	-9.26227
▁Other	-9.26282
▁face	-9.26377
js	-9.26525
▁headache	-9.26637
▁temperature	-9.26749
▁item	-9.26828
▁context	-9.27161
▁United	-9.27238
▁goals	-9.27269
▁bone	-9.27336
▁protein	-9.2736
▁columns	-9.27398
▁hours	-9.27541
▁match	-9.27577
▁note	-9.27608
▁Finally	-9.27777
▁inside	-9.27929
▁offers	-9.28258
▁wanted	-9.2839
▁opportunities	-9.28496
▁window	-9.28572
▁Given	-9.28656
▁days	-9.29419
▁share	-9.29526
▁images	-9.29576
▁exercises	-9.29656
▁Alright	-9.29663
),	-9.30159
▁contains	-9.30341
▁five	-9.30424
▁knowledge	-9.30462
▁move	-9.30826
▁platform	-9.30851
▁languages	-9.30858
▁experiences	-9.31092
▁seem	-9.31147
▁especially	-9.31226
▁stomach	-9.31315
▁US	-9.3145
▁hard	-9.31632
▁Make	-9.31728
▁procedure	-9.31799
▁reducing	-9.31866
▁terms	-9.31995
▁marketing	-9.32171
▁differences	-9.32337
▁experiencing	-9.32446
▁classes	-9.32456
▁ID	-9.32469
▁success	-9.32539
▁index	-9.3291
▁among	-9.33064
▁Facebook	-9.33158
▁discuss	-9.33172
my	-9.33179
▁thanks	-9.33325
▁download	-9.3346
▁compare	-9.33527
▁seen	-9.33594
▁height	-9.33721
▁decision	-9.33961
▁snippet	-9.33966
▁game	-9.33966
▁sources	-9.33969
▁financial	-9.34664
▁alternative	-9.34801
▁doing	-9.34822
▁browser	-9.34844
▁detect	-9.34982
▁figure	-9.35023
▁messages	-9.35082
▁heard	-9.35177
▁console	-9.35324
▁inflammation	-9.35382
▁second	-9.35571
▁jQuery	-9.35578
▁task	-9.35699
▁major	-9.35775
[	-9.35919
▁meaning	-9.35948
▁successful	-9.36071
▁speech	-9.36162
▁speed	-9.36477
▁requirements	-9.36663
▁interface	-9.36712
▁providing	-9.36773
▁disposal	-9.36916
▁returns	-9.3693
▁var	-9.3695
▁says	-9.37234
▁We	-9.37336
▁receive	-9.37348
▁screen	-9.37443
4	-9.3762
▁full	-9.37836
▁regularly	-9.38202
▁air	-9.38339
▁recommendations	-9.38405
▁Explain	-9.385
▁filter	-9.38671
▁Syndrome	-9.38769
▁swelling	-9.38842
▁parts	-9.38885
▁target	-9.39349
▁adjust	-9.39655
▁List	-9.39711
▁black	-9.39722
▁quickly	-9.39723
▁Your	-9.39732
▁|	-9.39865
▁/	-9.39882
▁slow	-9.40175
▁connect	-9.40215
▁rows	-9.40243
▁present	-9.40256
▁argument	-9.40374
▁style	-9.40511
▁culture	-9.40539
▁engineering	-9.40692
▁involved	-9.40743
▁modify	-9.40744
▁client	-9.40852
▁mobile	-9.40959
▁balance	-9.4108
▁likely	-9.41148
<	-9.41819
▁recent	-9.41829
▁potentially	-9.41844
▁immune	-9.41871
data	-9.41873
▁c	-9.41876
▁efficient	-9.41902
▁music	-9.42068
▁provided	-9.42187
▁schedule	-9.42721
▁track	-9.42836
▁load	-9.42941
▁complete	-9.42954
th	-9.43096
▁him	-9.43338
▁requires	-9.43342
on	-9.43467
▁comes	-9.4351
▁password	-9.43862
S	-9.44012
▁bit	-9.44032
▁reach	-9.44067
▁challenges	-9.44127
▁assistance	-9.44174
▁car	-9.44182
▁designed	-9.44367
▁drug	-9.44401
▁D	-9.4442
▁courses	-9.44428
▁States	-9.44555
▁evidence	-9.44634
▁copy	-9.44717
▁soon	-9.44913
▁ideas	-9.45031
▁My	-9.45207
▁R	-9.45263
▁Symptoms	-9.45331
▁menu	-9.45336
▁production	-9.45344
()`	-9.45644
▁mental	-9.45835
▁refer	-9.45928
▁least	-9.4593
▁4.	-9.45982
▁stop	-9.46063
▁science	-9.46147
▁sound	-9.46192
▁weakness	-9.46212
▁radiation	-9.46241
▁simply	-9.46294
▁abnormalities	-9.46454
▁towards	-9.46595
▁expression	-9.46666
▁sample	-9.46735
▁libraries	-9.46744
▁since	-9.46773
▁continue	-9.46895
▁Trump	-9.47056
▁past	-9.47097
▁across	-9.47132
▁Also	-9.47213
▁political	-9.47384
▁feeling	-9.47404
▁topics	-9.47496
▁spread	-9.4751
▁maintaining	-9.47791
▁eating	-9.47798
▁Disease	-9.47948
▁quite	-9.47957
▁signs	-9.48006
▁involve	-9.48006
▁built	-9.48038
▁businesses	-9.4807
▁implement	-9.48077
▁old	-9.48305
▁failure	-9.4833
▁close	-9.48566
▁live	-9.4861
▁link	-9.48777
▁leading	-9.48798
▁sometimes	-9.49119
▁us	-9.49212
▁sugar	-9.49238
▁movies	-9.49439
▁analysis	-9.49456
▁post	-9.49496
▁global	-9.49514
▁community	-9.49595
▁relationships	-9.4963
▁customers	-9.49642
▁Hmm	-9.50051
▁economic	-9.50221
▁travel	-9.50369
▁easily	-9.50403
▁Oral	-9.50439
▁eyes	-9.50973
▁average	-9.5104
▁original	-9.5105
▁0	-9.51128
▁antibiotics	-9.51138
▁delete	-9.51145
▁finding	-9.51152
based	-9.51239
▁container	-9.51352
▁folder	-9.51366
▁daily	-9.51446
▁reason	-9.51515
▁smoking	-9.51584
▁forget	-9.51587
▁exposure	-9.51668
▁digital	-9.51699
▁friends	-9.51746
▁processing	-9.51749
."	-9.51762
▁intelligence	-9.51945
▁everyone	-9.52085
▁directly	-9.52144
▁gain	-9.52164
▁imaging	-9.5219
▁Topical	-9.52219
▁Should	-9.52704
the	-9.52735
5	-9.52919
▁purpose	-9.5304
▁block	-9.53077
▁minutes	-9.53331
▁red	-9.53459
file	-9.53489
▁building	-9.5351
▁career	-9.53726
▁choice	-9.54392
▁M	-9.54414
▁ongoing	-9.54525
p	-9.54681
▁contribute	-9.54729
▁count	-9.54738
▁After	-9.54822
▁According	-9.54918
time	-9.55054
get	-9.55089
▁requests	-9.552
▁Oh	-9.553
▁longer	-9.5532
▁8	-9.55393
▁Find	-9.55554
▁preferences	-9.56243
▁chest	-9.56297
▁allergic	-9.56735
▁policies	-9.5676
▁dry	-9.56772
▁never	-9.56823
▁protect	-9.56963
▁clinical	-9.57037
▁joint	-9.57102
▁passing	-9.57123
▁changing	-9.57243
▁=>	-9.57522
▁Could	-9.57574
++	-9.57616
NET	-9.57629
▁card	-9.57637
▁log	-9.57696
▁missed	-9.57731
▁night	-9.57831
▁mouth	-9.57852
▁break	-9.58001
▁Studio	-9.58018
▁monitor	-9.58112
▁automatically	-9.58162
▁Any	-9.58558
▁particularly	-9.5866
▁With	-9.58799
▁5.	-9.58839
▁6	-9.58843
▁By	-9.58877
▁normal	-9.58901
▁reference	-9.58905
▁economy	-9.58932
▁urine	-9.58934
▁added	-9.58982
▁private	-9.59025
▁men	-9.59066
▁primary	-9.59247
▁XML	-9.59355
▁</	-9.59549
▁itself	-9.59556
▁certainly	-9.59563
I	-9.59674
▁E	-9.59746
▁null	-9.5981
▁length	-9.59892
▁larger	-9.60117
▁improving	-9.60154
▁hearing	-9.60191
▁oil	-9.60444
▁again	-9.60462
▁operator	-9.6069
▁On	-9.6073
▁platforms	-9.60761
▁customize	-9.60834
▁An	-9.60865
▁highly	-9.60912
▁She	-9.61147
▁guidance	-9.61363
▁G	-9.6139
▁located	-9.6144
▁layout	-9.61483
▁chronic	-9.61646
▁points	-9.61743
▁latest	-9.61773
▁room	-9.61855
▁promote	-9.61861
▁relevant	-9.61914
▁effect	-9.62012
▁tissue	-9.62182
▁interactions	-9.62203
▁essential	-9.62207
▁site	-9.62357
▁living	-9.62385
▁article	-9.62439
▁enable	-9.62507
▁remedies	-9.62617
▁traditional	-9.62669
▁iPhone	-9.62688
▁abdominal	-9.6292
▁desired	-9.62955
▁speak	-9.63086
▁practices	-9.63127
▁components	-9.63142
▁dependencies	-9.6331
▁section	-9.63342
▁calculate	-9.63404
▁won	-9.63427
▁reading	-9.63442
▁tumor	-9.63521
▁looks	-9.63684
▁period	-9.63686
");	-9.63941
▁tag	-9.64004
▁Identify	-9.64106
▁deep	-9.64112
▁specified	-9.64204
▁third	-9.64213
▁empty	-9.64269
▁anxiety	-9.64274
▁rather	-9.64356
▁legal	-9.6442
▁missing	-9.64494
▁therapies	-9.64513
▁happen	-9.64548
▁sex	-9.64735
▁Just	-9.64752
▁smaller	-9.6491
▁});	-9.64912
▁concept	-9.65034
▁months	-9.65206
▁internet	-9.65207
▁autosomal	-9.65247
▁heat	-9.65256
example	-9.65282
▁New	-9.65296
▁projects	-9.65427
er	-9.65446
▁actions	-9.655
▁trials	-9.65544
▁started	-9.65547
://	-9.6578
▁focused	-9.6584
▁active	-9.65885
▁arguments	-9.66061
▁white	-9.66443
▁Both	-9.66481
▁lack	-9.66893
▁center	-9.6703
▁controller	-9.67072
▁existing	-9.67083
▁plugin	-9.67458
▁today	-9.67539
▁wide	-9.67616
▁selected	-9.67737
▁header	-9.67741
▁basic	-9.67817
▁contain	-9.68288
▁map	-9.68401
▁prevented	-9.6845
▁node	-9.68472
▁solutions	-9.68517
or	-9.68541
▁city	-9.68693
▁faster	-9.68748
▁valid	-9.68786
▁organizations	-9.68803
▁separate	-9.68965
▁worth	-9.69029
▁addition	-9.69076
▁advanced	-9.6908
▁anti	-9.69339
▁Common	-9.69347
▁cultural	-9.69456
▁extract	-9.69532
▁animals	-9.69578
▁width	-9.69599
▁tab	-9.69619
▁genes	-9.69683
▁reactions	-9.69797
▁acid	-9.69821
▁>	-9.70301
▁Currently	-9.70693
▁secure	-9.71039
▁anyone	-9.71128
▁employees	-9.71224
▁documentation	-9.71333
▁passed	-9.7151
▁happens	-9.71682
▁mutation	-9.71711
▁accurate	-9.7185
▁powerful	-9.72011
▁resource	-9.72119
▁possibility	-9.72137
▁patterns	-9.72153
▁exact	-9.72191
▁authentication	-9.72213
▁price	-9.72259
▁materials	-9.72383
▁followed	-9.72417
B	-9.72475
▁outside	-9.72493
▁increasing	-9.72701
▁breastfeeding	-9.72753
▁status	-9.72768
▁birth	-9.72849
▁breast	-9.72874
▁Got	-9.72991
▁lines	-9.73141
▁hormone	-9.73147
hose	-9.7336
▁permissions	-9.73367
▁along	-9.73536
▁maximum	-9.73542
▁notes	-9.73621
▁matter	-9.73807
▁throughout	-9.73846
▁template	-9.73853
▁feelings	-9.73932
▁virtual	-9.73979
▁factor	-9.74075
▁Did	-9.7427
▁China	-9.74304
▁execute	-9.74402
▁report	-9.74439
b	-9.74448
path	-9.74448
▁four	-9.74561
▁compared	-9.7457
▁school	-9.7464
▁environmental	-9.74811
set	-9.74966
▁World	-9.75064
")	-9.75406
▁lives	-9.75515
▁fully	-9.75575
▁American	-9.75596
▁MySQL	-9.75685
▁relative	-9.75852
▁base	-9.75962
▁opinion	-9.75982
▁baby	-9.76109
▁measure	-9.76186
▁algorithms	-9.7624
▁interests	-9.76294
▁climate	-9.7634
▁thought	-9.76405
▁adults	-9.76409
▁previous	-9.7649
▁total	-9.76581
▁calling	-9.76587
▁strength	-9.76622
▁movement	-9.76693
▁strategies	-9.76709
▁const	-9.76976
▁flow	-9.77043
▁rest	-9.77078
▁operations	-9.77267
▁named	-9.77374
▁sexual	-9.77375
▁collection	-9.77425
▁injection	-9.77455
ness	-9.77467
▁hands	-9.77483
▁effectiveness	-9.77516
▁font	-9.77528
▁injury	-9.77674
▁forms	-9.77821
▁e	-9.77878
▁handling	-9.77892
▁interest	-9.78223
▁progress	-9.7833
▁Not	-9.78393
▁Apple	-9.7856
▁head	-9.78614
▁abnormal	-9.78623
▁models	-9.78635
▁iOS	-9.78654
string	-9.78764
▁hear	-9.78817
▁decisions	-9.78859
▁operating	-9.78895
▁sign	-9.78992
▁student	-9.79199
▁parents	-9.79275
▁bar	-9.79377
▁poisoning	-9.79499
▁death	-9.79612
▁limited	-9.79634
▁scientific	-9.79992
▁defined	-9.80061
▁plenty	-9.80098
▁greater	-9.80121
▁happening	-9.80162
▁phrase	-9.80226
▁respiratory	-9.80246
h	-9.80315
▁strings	-9.80377
▁clean	-9.80564
▁session	-9.80608
▁Server	-9.80728
▁emotions	-9.80823
▁varies	-9.80872
▁depression	-9.8113
▁speaking	-9.81478
▁practicing	-9.81538
▁tend	-9.81552
▁Ophthalmic	-9.81612
▁entire	-9.81855
▁Earth	-9.81954
▁box	-9.82019
▁React	-9.8202
▁nerve	-9.82051
▁int	-9.82357
▁processes	-9.82472
▁society	-9.82474
▁muscles	-9.82532
▁Spring	-9.82658
▁artificial	-9.82691
▁isn	-9.82823
▁bring	-9.82844
▁weeks	-9.82852
▁title	-9.82937
▁series	-9.83055
▁shown	-9.83085
▁effectively	-9.8313
▁responsible	-9.8315
▁framework	-9.83172
▁Good	-9.83179
▁appear	-9.83203
▁inform	-9.83683
▁walk	-9.8371
▁treating	-9.83778
▁developers	-9.83804
▁join	-9.8389
▁situations	-9.84018
▁div	-9.84031
▁expected	-9.84125
o	-9.84171
▁beliefs	-9.84179
▁FROM	-9.84181
▁lung	-9.84184
▁tumors	-9.84206
▁root	-9.8434
log	-9.8441
▁tables	-9.84433
▁equal	-9.84598
▁thoughts	-9.84696
▁everything	-9.84713
▁breath	-9.8474
▁managed	-9.84828
▁record	-9.85167
▁Rewrite	-9.85304
▁cache	-9.85579
▁chemotherapy	-9.85677
▁drinking	-9.85704
▁shows	-9.85751
▁SELECT	-9.85766
▁configure	-9.85879
▁international	-9.85963
▁replacement	-9.86261
▁excessive	-9.86402
▁Where	-9.8649
▁updates	-9.86563
▁enjoy	-9.86579
▁widely	-9.86593
▁System	-9.86648
▁surgical	-9.86722
▁preventing	-9.86741
T	-9.86789
▁F	-9.86823
▁sorry	-9.86847
▁regard	-9.86856
date	-9.86949
▁U	-9.87114
▁solve	-9.87149
▁eat	-9.87257
▁String	-9.8734
▁diseases	-9.87351
▁degree	-9.87462
▁thread	-9.87519
▁produce	-9.87537
▁pay	-9.87683
▁20	-9.87688
F	-9.87725
▁Excel	-9.87885
▁trigger	-9.87954
▁updating	-9.88032
▁prefer	-9.88079
▁camera	-9.88212
▁30	-9.88256
▁term	-9.88265
▁false	-9.88338
▁whole	-9.88344
▁emotional	-9.88459
▁vegetables	-9.88558
▁completely	-9.88575
▁suspect	-9.88614
▁sort	-9.88746
▁harm	-9.88828
▁friend	-9.89113
▁usage	-9.89156
▁places	-9.89185
▁watch	-9.89266
▁discomfort	-9.89268
▁policy	-9.89277
▁put	-9.8937
▁rules	-9.89507
▁Angular	-9.89786
▁thinking	-9.8988
▁written	-9.89923
▁colors	-9.90015
▁developmental	-9.90194
▁y	-9.90201
▁integer	-9.9032
▁anemia	-9.90418
▁50	-9.90448
▁sum	-9.9049
▁advantages	-9.90577
▁humans	-9.90882
▁turn	-9.90908
new	-9.90924
▁H	-9.91169
▁virus	-9.9123
▁force	-9.9128
▁Visual	-9.91316
▁tree	-9.9135
▁families	-9.9138
▁Amazon	-9.91424
▁exist	-9.91438
▁material	-9.91509
▁nested	-9.91646
▁extra	-9.91704
▁harmful	-9.91709
▁balanced	-9.91787
▁included	-9.91825
▁dynamic	-9.91938
▁ultimately	-9.91958
▁enter	-9.92057
▁stage	-9.92082
▁members	-9.92091
▁opinions	-9.92107
▁100	-9.92144
▁confirm	-9.92235
▁population	-9.92285
▁week	-9.92329
▁reaction	-9.92497
▁fact	-9.92655
▁monitoring	-9.9266
▁strategy	-9.92999
▁dysplasia	-9.93017
▁prepare	-9.93085
▁navigate	-9.93122
▁John	-9.93203
▁views	-9.93242
▁modern	-9.93248
▁foreign	-9.93329
▁vaccine	-9.93333
▁besides	-9.93351
▁games	-9.93417
▁insert	-9.93584
▁facial	-9.93598
▁bacteria	-9.93653
▁sun	-9.9371
▁external	-9.9375
▁planning	-9.93874
▁later	-9.9392
▁creative	-9.94028
▁familiar	-9.9427
▁communicate	-9.94436
▁Ah	-9.94566
column	-9.94763
▁profile	-9.94858
▁news	-9.95056
▁supportive	-9.9516
▁presence	-9.95231
▁HTTP	-9.95252
▁famous	-9.95728
▁static	-9.95802
related	-9.95836
▁label	-9.959
▁distance	-9.95912
▁feedback	-9.95914
▁biopsy	-9.96
▁meet	-9.96067
▁intake	-9.9608
▁far	-9.9611
▁beneficial	-9.96129
▁tax	-9.96143
▁feet	-9.96232
▁engine	-9.96255
▁visit	-9.96383
▁consumption	-9.9639
▁Instagram	-9.96517
▁queries	-9.96911
▁law	-9.97095
▁shape	-9.97112
▁confusion	-9.97189
▁inherit	-9.9732
▁videos	-9.97347
▁drink	-9.9735
▁consequences	-9.97419
f	-9.97566
▁updated	-9.97767
▁suggestion	-9.97831
▁month	-9.97867
▁giving	-9.97918
▁People	-9.98009
▁fruits	-9.9804
▁recessive	-9.98041
▁sets	-9.98075
▁fit	-9.98079
▁N	-9.98153
▁benefit	-9.98159
')	-9.98253
▁mode	-9.98289
div	-9.98456
▁cognitive	-9.98482
▁war	-9.98645
▁selecting	-9.98645
+	-9.98672
your	-9.98682
▁buy	-9.9871
txt	-9.98726
g	-9.98758
▁universe	-9.98799
▁Microsoft	-9.98879
▁audience	-9.9902
Name	-9.99119
▁didn	-9.99226
▁Design	-9.99238
text	-9.99273
es	-9.99302
▁binary	-9.99362
▁rule	-9.99378
▁fluid	-9.99483
▁formula	-9.99484
▁importance	-9.99508
▁re	-9.99816
▁traffic	-9.99865
▁installation	-9.9988
▁Generally	-9.99995
▁jobs	-10.001
▁tip	-10.0015
▁milk	-10.0017
▁University	-10.0026
▁themselves	-10.0035
▁review	-10.0041
▁subject	-10.0065
▁cold	-10.0065
');	-10.0075
us	-10.0079
▁criteria	-10.0085
▁green	-10.0093
counter	-10.0104
->	-10.0114
▁Data	-10.0123
▁mutated	-10.0134
▁versions	-10.0138
▁battery	-10.0143
▁extension	-10.0153
▁drive	-10.0159
▁laws	-10.0162
▁Will	-10.0165
▁shared	-10.0178
▁pre	-10.0193
list	-10.02
▁explaining	-10.0204
▁wrong	-10.0208
▁assign	-10.0222
▁Many	-10.0233
▁describe	-10.0234
▁appearance	-10.0257
▁comfortable	-10.0257
▁dark	-10.0258
▁prompt	-10.0258
▁investment	-10.0266
▁technologies	-10.0266
▁attributes	-10.0293
▁procedures	-10.0293
▁conflict	-10.0322
▁Wow	-10.0331
▁big	-10.0356
▁region	-10.0381
▁decrease	-10.0397
llowing	-10.0404
▁2,	-10.0406
▁indicate	-10.0415
▁12	-10.0421
▁recovery	-10.043
▁blue	-10.0441
▁CT	-10.0456
▁oxygen	-10.0476
▁changed	-10.0481
▁received	-10.049
▁remote	-10.0493
▁believed	-10.0494
▁Suggest	-10.0499
▁keyword	-10.0503
▁standard	-10.0508
▁explore	-10.0509
▁Using	-10.0552
▁hygiene	-10.0555
▁validation	-10.0556
▁Each	-10.0561
▁engaging	-10.0579
▁UI	-10.0584
▁keys	-10.0586
▁official	-10.0589
▁young	-10.0591
▁Give	-10.0601
▁chance	-10.0607
table	-10.0625
▁nature	-10.0632
▁sales	-10.0634
▁sent	-10.064
▁dominant	-10.0641
▁random	-10.0661
▁answers	-10.0674
▁reviews	-10.0691
▁recently	-10.0716
String	-10.0717
▁implementing	-10.0729
▁exception	-10.0736
▁industries	-10.0737
▁college	-10.0741
▁according	-10.0755
▁switch	-10.0759
▁implementation	-10.0765
▁goal	-10.0771
key	-10.0789
▁frequency	-10.0797
▁nodes	-10.0798
G	-10.0798
▁statements	-10.0806
▁got	-10.0807
▁O	-10.0817
▁15	-10.0819
▁favorite	-10.0819
▁Django	-10.0839
▁studying	-10.0844
▁port	-10.0863
▁ingredients	-10.0875
▁Cancer	-10.0878
▁lose	-10.0885
▁connections	-10.0898
▁fat	-10.0899
▁reliable	-10.0917
▁conflicts	-10.0917
▁congenital	-10.0926
▁examination	-10.0927
</	-10.093
▁functionality	-10.0936
▁rash	-10.0938
▁becoming	-10.094
▁vitamin	-10.0941
▁blog	-10.0949
▁waste	-10.0955
▁National	-10.0961
▁terminal	-10.0962
▁theory	-10.0972
▁Add	-10.0973
▁sports	-10.0988
▁prescription	-10.0991
▁War	-10.0992
▁logs	-10.1
▁letter	-10.1009
▁applying	-10.1021
up	-10.1032
▁records	-10.1043
▁sentences	-10.1083
▁carefully	-10.1096
▁ASP	-10.1098
▁intellectual	-10.1106
▁chat	-10.1107
▁infected	-10.112
▁costs	-10.1144
▁removing	-10.115
▁moment	-10.1157
▁warning	-10.1169
▁throat	-10.117
▁500	-10.1175
▁technique	-10.1187
▁stock	-10.12
▁experienced	-10.1203
Based	-10.1209
▁allowed	-10.1213
▁documents	-10.1216
▁behind	-10.1219
▁attack	-10.1219
▁animal	-10.1239
▁extreme	-10.1239
▁opening	-10.1245
▁dynamically	-10.1266
▁grow	-10.1275
▁mass	-10.1276
▁skip	-10.1287
▁man	-10.1287
▁stream	-10.129
▁represent	-10.1306
▁TV	-10.1317
▁gender	-10.1334
▁regulations	-10.1339
▁limitations	-10.1339
▁frequently	-10.1349
▁focuses	-10.1349
▁itching	-10.1369
▁b	-10.1377
▁drowsiness	-10.1394
▁hold	-10.1396
▁necessarily	-10.1404
▁fast	-10.1427
1,	-10.1435
▁certificate	-10.1435
▁staying	-10.1436
▁keeping	-10.145
2.	-10.148
▁dangerous	-10.1485
▁token	-10.1485
▁applied	-10.1487
▁V	-10.1487
▁Provide	-10.1491
▁legs	-10.1491
ar	-10.1497
▁states	-10.1497
▁efforts	-10.1508
▁playing	-10.151
▁poem	-10.1513
▁driver	-10.1518
▁matches	-10.1531
▁voice	-10.1545
▁song	-10.1553
▁dog	-10.1554
▁description	-10.1559
▁vector	-10.1561
▁compatible	-10.1577
▁chart	-10.1589
▁ear	-10.1589
▁demand	-10.1591
▁pharmacist	-10.1596
▁manually	-10.1607
▁IP	-10.1609
▁n	-10.1609
0	-10.1617
▁headaches	-10.1621
▁meditation	-10.1623
▁budget	-10.1628
▁near	-10.1631
▁id	-10.1633
▁direct	-10.1644
▁earn	-10.1654
▁transactions	-10.1672
▁older	-10.1676
▁species	-10.1686
▁android	-10.1692
▁loading	-10.1707
▁purchase	-10.1711
▁bad	-10.1715
R	-10.1723
click	-10.1727
▁developed	-10.1743
▁personalized	-10.175
▁release	-10.1751
▁resolve	-10.176
">	-10.1771
▁saying	-10.1774
▁exists	-10.1776
▁challenging	-10.1782
▁sequence	-10.1783
▁--	-10.1783
▁partner	-10.1785
▁clothing	-10.1789
▁improved	-10.1821
▁connected	-10.1825
▁suitable	-10.1841
▁repository	-10.1849
▁def	-10.185
Hello	-10.1851
▁characterized	-10.1852
}	-10.1852
▁routine	-10.1858
▁audio	-10.1876
▁receiving	-10.1922
▁income	-10.1926
▁stroke	-10.1927
▁cholesterol	-10.1933
▁accuracy	-10.1944
▁President	-10.1948
▁detail	-10.1951
▁delays	-10.1953
▁scan	-10.1963
▁plot	-10.1969
▁WHERE	-10.1978
friendly	-10.1982
▁==	-10.1985
▁neurological	-10.1987
▁personality	-10.1993
▁calls	-10.1997
▁wearing	-10.1998
▁analyze	-10.2008
▁accessing	-10.2013
▁YouTube	-10.2019
▁arrays	-10.2021
▁carbon	-10.2022
▁frequent	-10.2034
▁interview	-10.2048
▁amounts	-10.2052
▁minimum	-10.2053
▁disable	-10.2058
▁rates	-10.2059
▁containing	-10.206
▁supports	-10.2062
▁tea	-10.2068
▁exams	-10.2069
▁layer	-10.2075
▁represents	-10.2076
▁upload	-10.2079
▁member	-10.2082
▁consistent	-10.2084
▁prioritize	-10.2086
▁Definitely	-10.2097
▁linked	-10.2102
6	-10.2106
▁sharing	-10.2108
▁determined	-10.2121
▁wait	-10.2131
▁million	-10.2163
▁actual	-10.2166
▁Classify	-10.2169
▁coding	-10.2171
Value	-10.2175
▁girl	-10.2209
▁visual	-10.2211
▁credit	-10.2212
▁efficiency	-10.2219
▁Chinese	-10.2225
▁Set	-10.2242
▁domain	-10.2245
▁keeps	-10.225
k	-10.225
▁hot	-10.2253
able	-10.2263
▁multi	-10.2264
int	-10.2265
▁influence	-10.227
▁drop	-10.2275
▁candidates	-10.2279
▁paper	-10.2283
▁alleviate	-10.2286
▁transportation	-10.2292
▁constipation	-10.2308
▁sub	-10.2314
▁primarily	-10.232
▁L	-10.2323
▁attacks	-10.2328
▁estimated	-10.2338
▁hereditary	-10.2354
▁salary	-10.2356
▁debugging	-10.2365
";	-10.2366
▁mood	-10.2371
▁mild	-10.2376
▁symbol	-10.2376
▁weather	-10.2376
▁poor	-10.238
▁cover	-10.2387
▁styles	-10.24
▁gas	-10.2402
▁transfer	-10.2407
▁scans	-10.2409
▁selection	-10.2416
▁technical	-10.2434
▁movements	-10.2436
▁disability	-10.2456
▁iron	-10.2468
is	-10.2473
▁consuming	-10.2476
▁branch	-10.2476
▁tags	-10.2477
▁seeing	-10.2482
party	-10.2491
like	-10.2503
▁icon	-10.2507
▁worldwide	-10.2519
▁fine	-10.2528
▁argue	-10.2532
▁seeking	-10.2534
▁currency	-10.2537
▁Linux	-10.2539
▁bones	-10.2539
json	-10.2565
▁autoimmune	-10.2566
▁repair	-10.2567
▁un	-10.2567
▁structures	-10.2567
▁duration	-10.2574
▁tutorials	-10.2577
▁constructor	-10.2581
▁listen	-10.2585
▁election	-10.2588
▁optimize	-10.2594
▁walking	-10.2595
▁differ	-10.2598
▁predict	-10.261
▁catch	-10.2613
▁beautiful	-10.2622
xml	-10.2627
▁dictionary	-10.2636
▁preparation	-10.2639
▁bank	-10.2639
▁score	-10.2641
▁packages	-10.2644
▁wear	-10.2649
▁dispose	-10.2654
▁pages	-10.2664
▁pointer	-10.2674
▁trust	-10.2675
▁miss	-10.268
▁organs	-10.268
▁military	-10.2682
▁guidelines	-10.2686
▁professionals	-10.2692
▁unknown	-10.2701
▁recover	-10.2719
▁chemical	-10.2721
▁Now	-10.2726
X	-10.2728
▁equation	-10.2728
class	-10.2731
▁detailed	-10.2742
":	-10.2747
▁showing	-10.2751
▁appears	-10.2758
▁expensive	-10.2758
▁art	-10.2759
▁arthritis	-10.2764
▁privacy	-10.277
end	-10.2777
▁warm	-10.2798
▁fish	-10.2801
▁Chrome	-10.2812
html	-10.2817
▁encoding	-10.2819
▁laptop	-10.2823
▁exchange	-10.2825
▁dystrophy	-10.2829
▁performed	-10.2829
▁MRI	-10.2833
▁Inhalation	-10.2841
▁asking	-10.2842
▁respect	-10.2845
▁9	-10.2847
▁decreased	-10.2853
▁Clinton	-10.2859
($	-10.2865
▁plans	-10.2865
▁animation	-10.2867
▁Construct	-10.2876
▁surface	-10.289
▁calcium	-10.2895
net	-10.2906
▁via	-10.2918
▁6.	-10.2925
▁split	-10.2929
▁engage	-10.2938
▁bacterial	-10.2938
▁oral	-10.2946
▁organization	-10.2947
▁teeth	-10.2961
▁PDF	-10.2962
▁electrical	-10.2971
▁Laravel	-10.2973
▁Summariz	-10.2997
▁matrix	-10.3001
▁rights	-10.3015
▁bladder	-10.3015
▁urinary	-10.3015
▁creates	-10.3021
▁manager	-10.3022
▁Javascript	-10.3024
▁woman	-10.3033
input	-10.3034
lternatively	-10.3041
▁perfect	-10.305
▁solar	-10.3052
▁stack	-10.3056
▁operation	-10.3063
▁difficulties	-10.3064
▁delivery	-10.3088
▁closely	-10.3091
▁moving	-10.3101
▁heavy	-10.3119
▁sending	-10.3122
▁pretty	-10.3125
function	-10.3132
▁thyroid	-10.3138
u	-10.3151
array	-10.3166
▁visible	-10.3176
▁instances	-10.3191
▁cities	-10.3192
▁Convert	-10.3204
▁border	-10.3209
▁redirect	-10.3209
▁communities	-10.321
▁breaks	-10.3213
▁stiffness	-10.3216
line	-10.3218
▁cat	-10.3222
▁little	-10.3223
▁prices	-10.3226
▁Web	-10.323
▁goes	-10.3238
▁universities	-10.3247
image	-10.3248
j	-10.325
):	-10.3253
▁okay	-10.3266
▁identity	-10.3268
8	-10.3271
▁choices	-10.3281
▁cultures	-10.3289
▁cloud	-10.3289
▁facing	-10.3301
▁generated	-10.331
▁advantage	-10.3313
▁perspective	-10.3314
▁directed	-10.3326
▁rich	-10.3327
▁reported	-10.3338
▁headers	-10.3342
▁appetite	-10.3359
▁redness	-10.3361
▁searching	-10.3374
linked	-10.3375
1.	-10.3376
this	-10.3384
▁spinal	-10.3385
▁enzyme	-10.3389
▁abilities	-10.3391
▁positions	-10.3393
▁edit	-10.3394
▁challenge	-10.341
▁untreated	-10.3416
▁Actually	-10.3416
▁proteins	-10.3419
▁restrictions	-10.3419
▁Pakistan	-10.3422
▁sites	-10.3424
▁explanation	-10.3427
▁stories	-10.3428
▁below	-10.3433
▁effort	-10.3433
▁investing	-10.3439
▁cool	-10.3457
▁loaded	-10.3467
▁America	-10.3473
age	-10.3485
▁implemented	-10.349
▁1000	-10.3496
▁insights	-10.3497
out	-10.3499
▁Next	-10.3502
▁injuries	-10.3504
▁relieve	-10.3506
▁led	-10.3508
▁trends	-10.3518
▁scale	-10.3518
▁sky	-10.3544
▁p	-10.3547
▁pulmonary	-10.3548
▁flag	-10.356
v	-10.3564
▁illegal	-10.3573
▁Apache	-10.3575
▁purposes	-10.3586
▁Use	-10.3587
▁Sometimes	-10.3594
▁treatable	-10.3596
▁said	-10.36
▁player	-10.3607
P	-10.3616
))	-10.3623
▁login	-10.3636
▁party	-10.3638
▁final	-10.3639
add	-10.3643
▁Type	-10.3644
▁salt	-10.3645
▁navigation	-10.3646
▁cash	-10.3658
▁vessels	-10.366
▁commands	-10.3666
▁tract	-10.367
M	-10.3678
▁delay	-10.3679
▁triggers	-10.3684
▁transplant	-10.3702
▁talking	-10.3704
▁Compare	-10.3711
▁plant	-10.3717
▁push	-10.3718
▁highest	-10.3725
▁1,	-10.3736
▁hide	-10.3752
▁MVC	-10.3757
▁pollution	-10.3762
▁accounts	-10.3768
▁definition	-10.3771
▁void	-10.3798
▁approximately	-10.38
▁Output	-10.3802
▁K	-10.3812
▁removed	-10.3819
▁Edit	-10.382
▁payment	-10.383
▁drinks	-10.3834
▁frame	-10.384
▁comprehensive	-10.384
▁File	-10.3841
▁compatibility	-10.3847
▁executed	-10.3855
▁Get	-10.386
▁valuable	-10.3866
▁nose	-10.3872
▁clients	-10.3884
Data	-10.3886
▁std	-10.3892
▁caffeine	-10.39
▁Node	-10.3909
▁corresponding	-10.3915
▁neck	-10.392
▁academic	-10.3922
▁Re	-10.3927
▁respond	-10.3928
▁promoting	-10.3933
▁route	-10.3934
▁counseling	-10.3939
▁discharge	-10.3948
▁doctors	-10.3953
▁chances	-10.3956
▁though	-10.3966
▁doses	-10.3974
E	-10.3975
▁mentioned	-10.398
▁theme	-10.3994
▁fixed	-10.4004
▁progression	-10.4006
▁boost	-10.4011
▁coordination	-10.4012
type	-10.4044
▁evaluate	-10.4054
▁motion	-10.4066
▁v	-10.4067
▁Rs	-10.4067
▁grid	-10.4068
▁worked	-10.4078
▁ethical	-10.4078
▁roles	-10.408
▁unusual	-10.4105
▁decide	-10.4106
▁win	-10.4107
▁driving	-10.4113
▁corruption	-10.4116
▁II	-10.4117
▁stands	-10.412
▁eventually	-10.4133
▁Swift	-10.4134
▁installing	-10.4137
▁architecture	-10.4138
▁habits	-10.4143
▁office	-10.4145
▁atmosphere	-10.4147
H	-10.4153
▁fun	-10.4155
▁mistakes	-10.4158
▁renewable	-10.4164
▁reset	-10.4197
▁mechanical	-10.4202
▁kidneys	-10.421
▁plants	-10.4214
checked	-10.4215
▁Rails	-10.4219
▁credentials	-10.422
▁irritation	-10.4222
▁preference	-10.4228
▁York	-10.423
▁python	-10.4233
▁complexity	-10.4243
▁category	-10.4267
▁played	-10.427
▁Twitter	-10.4275
▁insurance	-10.429
▁dataset	-10.4292
▁critical	-10.4297
▁trade	-10.4297
▁editor	-10.43
▁consume	-10.4305
▁hash	-10.4307
▁coffee	-10.4311
▁hydrated	-10.4313
';	-10.4322
▁aid	-10.4324
▁networks	-10.4324
▁allergies	-10.4345
▁J	-10.4348
▁forward	-10.4351
▁constant	-10.4352
▁3,	-10.4353
▁invest	-10.4379
▁developer	-10.4385
▁tone	-10.4389
▁religious	-10.4394
▁fluids	-10.4399
▁nervous	-10.4407
▁entity	-10.4409
▁square	-10.4413
▁deleted	-10.4413
▁java	-10.4428
▁transmitted	-10.4442
▁Donald	-10.4457
▁Pro	-10.4463
▁infants	-10.4464
▁username	-10.4468
▁scientists	-10.4471
▁swallowing	-10.4473
▁capabilities	-10.4478
▁Text	-10.448
▁strange	-10.4484
▁unable	-10.4493
▁cross	-10.4499
▁dosing	-10.4507
▁touch	-10.4513
▁links	-10.4514
▁almost	-10.4519
▁displayed	-10.4525
▁flexibility	-10.4527
▁gland	-10.4527
ous	-10.4529
▁recognize	-10.4534
by	-10.4536
▁concepts	-10.4536
▁grammar	-10.4541
▁bowel	-10.4548
▁players	-10.4548
unless	-10.4551
▁parse	-10.4551
▁French	-10.4562
▁merge	-10.4563
▁lungs	-10.4567
▁App	-10.4568
▁processed	-10.4568
Exception	-10.4569
▁export	-10.4588
▁Specifically	-10.4597
of	-10.4598
q	-10.4598
▁accordingly	-10.46
▁cars	-10.4608
▁recognition	-10.4612
▁formatting	-10.4612
▁exploring	-10.4618
▁earlier	-10.4633
▁Nasal	-10.4633
▁dropdown	-10.4633
▁marrow	-10.464
▁25	-10.4646
▁paragraph	-10.4647
▁degrees	-10.4647
▁dates	-10.465
▁contrast	-10.4655
▁contents	-10.4655
▁protection	-10.466
▁Select	-10.4662
▁stores	-10.4677
▁chemicals	-10.4677
▁burning	-10.4682
▁house	-10.4684
▁keyboard	-10.4686
O	-10.4687
▁expect	-10.4688
▁All	-10.4689
▁film	-10.4694
▁native	-10.4694
▁tracking	-10.4696
▁capture	-10.4711
▁specialize	-10.4714
▁taste	-10.4724
▁efficiently	-10.4738
color	-10.4743
▁starts	-10.4751
['	-10.4755
threatening	-10.4759
one	-10.4776
▁familial	-10.4783
▁Azure	-10.4784
▁express	-10.4795
▁initial	-10.4798
▁direction	-10.4799
▁returned	-10.4805
▁Open	-10.4806
▁carry	-10.4808
▁moisture	-10.4812
▁aspects	-10.4815
▁runtime	-10.4815
▁Code	-10.4823
▁expressions	-10.4832
▁directive	-10.4833
▁Canada	-10.4839
▁straightforward	-10.4841
en	-10.4841
▁hardware	-10.4848
▁pets	-10.4866
▁rely	-10.4867
▁journey	-10.4868
▁channel	-10.487
▁clause	-10.4875
▁scope	-10.4879
▁planet	-10.4888
▁Error	-10.4896
▁logging	-10.4897
▁unexpected	-10.4898
▁lost	-10.49
▁execution	-10.4906
▁seconds	-10.4928
▁practical	-10.4934
▁Ruby	-10.4936
▁schema	-10.4938
▁alone	-10.494
▁18	-10.4941
▁targeted	-10.4942
▁Has	-10.4945
▁ensur	-10.4949
▁equipment	-10.495
▁crucial	-10.495
▁dependency	-10.4957
John	-10.4957
▁Eclipse	-10.4959
▁released	-10.4964
▁surrounding	-10.4965
▁AWS	-10.4967
▁attempt	-10.4976
▁manner	-10.4977
▁sensitive	-10.4979
▁leave	-10.4979
▁coaching	-10.4996
▁Japan	-10.5002
▁characteristics	-10.5007
php	-10.5008
▁relief	-10.5011
▁copies	-10.5017
▁Hepatitis	-10.5017
▁decimal	-10.5018
user	-10.5021
▁SSL	-10.5021
▁ice	-10.5022
▁juice	-10.5022
Type	-10.5032
▁upon	-10.5039
▁photo	-10.5039
▁South	-10.5048
='	-10.5054
▁host	-10.5064
▁periods	-10.5067
▁asked	-10.5072
▁front	-10.5076
▁fear	-10.5077
▁fill	-10.5088
▁songs	-10.509
▁engineer	-10.5093
▁flexible	-10.5099
▁recipe	-10.5105
inflammatory	-10.5106
▁excellent	-10.5114
▁Framework	-10.5116
▁submit	-10.5116
▁eggs	-10.5119
▁rapid	-10.5119
▁configured	-10.513
▁Mac	-10.513
▁math	-10.5135
-1	-10.5139
le	-10.5141
▁computing	-10.5144
▁morning	-10.5181
index	-10.5185
▁meal	-10.5189
▁auto	-10.5197
▁Come	-10.5203
▁encryption	-10.5203
level	-10.5204
').	-10.5209
▁stem	-10.5218
▁detection	-10.5219
▁stand	-10.5228
▁grapefruit	-10.5241
▁pandas	-10.5253
L	-10.5258
▁CSV	-10.5259
▁permission	-10.526
▁affecting	-10.5269
▁beauty	-10.5272
▁Germany	-10.5273
▁motor	-10.5277
▁enabled	-10.5282
▁infrastructure	-10.5294
▁stages	-10.5303
▁theories	-10.5306
side	-10.5308
▁coming	-10.5313
▁behavioral	-10.5314
▁schools	-10.5319
▁mix	-10.5325
▁regardless	-10.5332
▁clicking	-10.5333
▁posts	-10.5346
▁diverse	-10.5347
▁temperatures	-10.5352
▁outcomes	-10.5358
▁becomes	-10.536
▁hour	-10.5361
▁zero	-10.5364
▁signal	-10.5368
▁struggling	-10.5378
▁piece	-10.5383
▁widget	-10.5384
▁impressive	-10.5393
▁beginning	-10.5394
▁paid	-10.5403
tic	-10.5407
▁dogs	-10.5416
▁contagious	-10.5416
▁destination	-10.5424
▁percentage	-10.5426
▁fight	-10.5428
▁deal	-10.5433
▁dialog	-10.5435
▁unit	-10.5436
K	-10.5441
▁iterate	-10.5444
▁abscess	-10.5454
▁president	-10.5456
▁f	-10.5458
▁pneumonia	-10.547
▁medicine	-10.5472
w	-10.5475
▁listening	-10.5478
▁upset	-10.5478
▁Oracle	-10.548
se	-10.5483
▁incorrect	-10.5496
▁4,	-10.5496
▁competitive	-10.5499
▁conducted	-10.5502
▁obtain	-10.5503
▁draw	-10.5528
▁downsides	-10.5541
▁complicated	-10.5548
▁restaurant	-10.5551
quality	-10.5557
▁volume	-10.5561
▁regulate	-10.557
▁resolution	-10.557
▁beginners	-10.5586
▁beyond	-10.5587
▁vitamins	-10.5602
▁Bootstrap	-10.5603
▁largest	-10.5609
▁bottom	-10.561
app	-10.5618
▁removal	-10.5619
▁historical	-10.5625
Object	-10.5627
▁consulting	-10.563
▁affordable	-10.5634
▁minimize	-10.564
▁Instead	-10.5642
▁WhatsApp	-10.5642
▁hospital	-10.5645
▁saved	-10.5645
File	-10.5647
▁fall	-10.5648
▁accessible	-10.5651
an	-10.5653
▁God	-10.5655
▁alternatives	-10.5655
▁remain	-10.5663
▁religion	-10.5669
▁cycle	-10.567
▁More	-10.567
▁byte	-10.5671
▁improvement	-10.5674
▁accidentally	-10.5681
▁finance	-10.5686
▁debug	-10.5696
▁clots	-10.5722
▁2016	-10.5725
▁spending	-10.5732
▁tissues	-10.5738
▁checks	-10.574
▁SDK	-10.5743
▁0;	-10.5751
").	-10.5752
▁override	-10.5752
▁https	-10.5753
▁mobility	-10.576
[]	-10.5763
2,	-10.5765
▁Git	-10.5771
▁letters	-10.5776
▁chromosome	-10.5781
▁binding	-10.5784
▁transaction	-10.5786
▁concise	-10.579
▁promising	-10.5792
▁supported	-10.5795
▁heartbeat	-10.5797
▁brands	-10.5797
▁closed	-10.5802
▁Compose	-10.5808
▁meals	-10.5812
▁Like	-10.5818
▁graphics	-10.5819
▁quick	-10.582
▁Congenital	-10.5824
▁adjusting	-10.5831
▁childhood	-10.5832
▁waves	-10.5832
▁Object	-10.5846
▁temporary	-10.5849
▁bind	-10.5849
size	-10.5851
▁immediate	-10.5855
▁hidden	-10.5856
▁physics	-10.5857
▁logic	-10.5859
▁ready	-10.5864
▁administered	-10.5867
▁combine	-10.5875
▁educational	-10.5877
▁converting	-10.5877
▁editing	-10.5881
px	-10.5884
▁corticosteroids	-10.5895
▁digestive	-10.5897
▁integers	-10.5901
▁trauma	-10.5904
▁View	-10.5906
▁declare	-10.5907
▁employee	-10.5914
▁ultrasound	-10.5918
ry	-10.5922
▁Go	-10.5928
▁advertising	-10.5929
▁kept	-10.5929
▁Technology	-10.593
▁returning	-10.5938
▁reality	-10.5938
▁excess	-10.5953
▁exercising	-10.5953
▁reduced	-10.5958
▁align	-10.5961
▁reverse	-10.5961
http	-10.5967
▁twice	-10.5969
▁regions	-10.5977
▁conversion	-10.5985
▁whereas	-10.6005
▁Firebase	-10.6006
▁core	-10.6013
▁helping	-10.6025
▁comments	-10.6029
▁url	-10.603
▁internal	-10.6033
▁begin	-10.604
▁painful	-10.6041
▁myself	-10.6041
▁growing	-10.6042
Add	-10.6044
▁fees	-10.6056
▁mock	-10.6089
item	-10.6091
▁cream	-10.6099
var	-10.61
▁buffer	-10.6101
▁stars	-10.6102
▁revenue	-10.6109
▁dehydration	-10.6117
▁ng	-10.6118
▁reports	-10.6126
▁Service	-10.6127
▁lymph	-10.6136
▁dental	-10.6136
▁->	-10.6136
▁classic	-10.6138
({	-10.6139
▁storing	-10.6142
▁Take	-10.6144
▁onto	-10.6144
▁establish	-10.6148
url	-10.6148
▁photos	-10.6149
▁facts	-10.6151
▁defects	-10.6153
▁selector	-10.6158
▁fats	-10.6158
▁POST	-10.617
▁inner	-10.6199
▁arise	-10.6201
▁register	-10.6208
ups	-10.621
z	-10.6218
View	-10.6228
▁browsers	-10.623
▁helped	-10.6243
script	-10.6244
▁encourage	-10.6245
().	-10.6246
▁substance	-10.6258
▁blurred	-10.6275
▁notable	-10.6278
▁foot	-10.6282
▁radio	-10.6287
▁threads	-10.6294
▁spend	-10.6297
▁follows	-10.6298
▁late	-10.6303
▁cup	-10.631
During	-10.6312
▁yoga	-10.6317
▁categories	-10.6318
▁manipulate	-10.6321
▁slightly	-10.6326
solving	-10.6331
▁symptom	-10.6334
▁enhance	-10.6335
▁Analyze	-10.6341
▁suggests	-10.6348
▁fuel	-10.635
▁DNA	-10.6351
▁Replace	-10.6356
▁occurring	-10.636
▁engineers	-10.6361
▁central	-10.6366
▁databases	-10.6369
▁lists	-10.639
▁vaginal	-10.6402
▁went	-10.6403
▁nutrients	-10.6404
▁clicked	-10.6405
▁num	-10.6405
▁trees	-10.6421
▁11	-10.6424
▁land	-10.6431
▁listener	-10.6432
▁national	-10.6435
▁supply	-10.6445
▁sensitivity	-10.6446
button	-10.6448
▁progressive	-10.6453
▁male	-10.6457
▁sudden	-10.6459
▁strengths	-10.6465
▁sell	-10.6469
▁df	-10.6478
▁City	-10.6485
▁opportunity	-10.6487
length	-10.6488
▁candidate	-10.6498
▁circumstances	-10.6498
▁cured	-10.6501
▁sustainable	-10.6504
▁thoroughly	-10.6504
▁North	-10.6512
▁charge	-10.6519
▁substances	-10.652
▁trial	-10.6521
▁regex	-10.6531
▁paths	-10.6536
▁irregular	-10.6536
▁failed	-10.6541
▁wind	-10.6544
▁verb	-10.6552
▁therapist	-10.6576
▁react	-10.6577
▁proxy	-10.6582
▁picture	-10.6582
care	-10.6587
▁setup	-10.6587
▁streaming	-10.6593
▁serve	-10.6595
form	-10.6597
▁spaces	-10.6598
▁viral	-10.6599
▁shopping	-10.6607
▁concern	-10.6614
▁fair	-10.6621
▁noticed	-10.6628
{	-10.6631
▁indicates	-10.6632
▁maintenance	-10.6643
config	-10.6645
math	-10.6646
▁meat	-10.6653
▁overcome	-10.6659
▁accept	-10.666
▁persistent	-10.666
▁press	-10.6668
▁addiction	-10.6677
▁abuse	-10.6679
▁verify	-10.6704
ive	-10.6711
▁Spray	-10.6711
▁experts	-10.6715
▁rise	-10.6716
▁protocol	-10.6718
▁24	-10.673
▁buttons	-10.6731
▁relaxation	-10.6738
▁Calculate	-10.6743
▁happiness	-10.6756
▁distribution	-10.6761
▁controls	-10.6765
▁analyzing	-10.6773
▁significantly	-10.6782
▁commit	-10.6786
▁plugins	-10.6786
▁sleeping	-10.6789
▁Research	-10.6791
▁performing	-10.6796
▁assess	-10.6798
▁modules	-10.6799
www	-10.6809
▁British	-10.6809
▁clearing	-10.6809
▁accessed	-10.6815
▁looked	-10.682
▁Core	-10.6823
▁scenario	-10.6831
▁electric	-10.684
▁Access	-10.6843
▁watching	-10.6852
▁approaches	-10.6855
▁16	-10.6857
▁outcome	-10.6858
▁mother	-10.6867
▁emails	-10.6869
▁genetics	-10.687
▁aspect	-10.6876
▁above	-10.688
▁dealing	-10.688
being	-10.6887
▁occupational	-10.6888
▁accomplish	-10.6904
▁sizes	-10.6907
Y	-10.6908
▁muscular	-10.6922
▁cards	-10.6928
▁interactive	-10.6935
▁Diagnosis	-10.6942
▁Cloud	-10.6943
▁0,	-10.6951
▁produced	-10.6953
▁meeting	-10.6954
▁panel	-10.6955
field	-10.6961
▁Russia	-10.6968
▁graph	-10.6977
▁biggest	-10.6987
▁politics	-10.6987
▁networking	-10.6996
▁labels	-10.6998
▁callback	-10.6999
▁exceptions	-10.6999
▁emissions	-10.7003
▁visa	-10.7008
▁ground	-10.7009
▁datetime	-10.7016
▁mainly	-10.7016
▁anywhere	-10.7029
▁covers	-10.7038
▁asthma	-10.705
▁essay	-10.7057
▁lately	-10.707
▁completed	-10.7077
▁successfully	-10.7084
▁compression	-10.7085
▁waiting	-10.7087
▁potassium	-10.7088
▁overview	-10.7098
▁upper	-10.7103
▁six	-10.7116
▁fresh	-10.7116
▁campaign	-10.7128
▁annotation	-10.7133
▁round	-10.7136
▁plays	-10.7136
▁appointment	-10.7159
▁constantly	-10.7161
▁beta	-10.7162
▁Security	-10.7165
▁prostate	-10.7168
▁pool	-10.7168
▁Change	-10.717
▁neural	-10.7181
Text	-10.7195
▁reaching	-10.7206
▁female	-10.7206
▁leads	-10.7219
▁webpage	-10.7224
▁downloading	-10.7225
▁leadership	-10.7232
▁Japanese	-10.7243
▁stones	-10.7249
▁mindfulness	-10.7251
▁char	-10.7251
▁agree	-10.7253
▁cleaning	-10.7253
▁expertise	-10.726
▁Learning	-10.7264
▁accurately	-10.7274
▁AngularJS	-10.7279
▁specifying	-10.7288
▁programmed	-10.7289
▁moon	-10.729
▁cord	-10.7297
▁19	-10.7298
▁parties	-10.7307
life	-10.7307
select	-10.731
▁fetch	-10.7318
▁shell	-10.7319
▁Australia	-10.7324
▁Europe	-10.7335
▁romantic	-10.7335
rays	-10.734
▁dysfunction	-10.7341
▁citizens	-10.7343
▁Xcode	-10.7345
▁capital	-10.7351
▁supplement	-10.7354
▁breaking	-10.7356
▁t	-10.7356
▁processor	-10.7357
▁5,	-10.7362
▁scene	-10.7364
▁expand	-10.7369
▁blocked	-10.7369
▁};	-10.7375
▁informed	-10.7377
▁offering	-10.7388
▁Sub	-10.7393
▁runs	-10.7418
▁tap	-10.7418
▁specifies	-10.7419
▁careful	-10.7436
▁Chronic	-10.7437
▁remains	-10.7443
all	-10.7444
▁Hillary	-10.7447
▁startup	-10.7455
▁compiler	-10.7461
▁quotes	-10.7462
▁hyper	-10.7463
▁novel	-10.7466
▁amazing	-10.7466
▁attract	-10.7473
▁chain	-10.7475
▁faced	-10.7477
▁Dr	-10.748
▁board	-10.7483
▁cut	-10.749
▁transition	-10.7493
▁dream	-10.7495
map	-10.7496
▁soft	-10.7507
▁10.	-10.751
▁struct	-10.7518
▁launch	-10.752
▁topical	-10.7533
▁specialized	-10.7539
▁pursue	-10.7546
▁namespace	-10.7547
▁protective	-10.7553
▁kill	-10.7554
▁gets	-10.756
▁middle	-10.7563
▁solid	-10.7564
▁scroll	-10.7564
▁cooking	-10.7569
▁canvas	-10.7569
▁motivated	-10.7572
▁considering	-10.7576
▁8.	-10.7576
▁debate	-10.7578
programmatically	-10.758
▁taxes	-10.7581
▁meaningful	-10.7581
word	-10.7581
▁filled	-10.7582
▁weakened	-10.7599
▁blocking	-10.76
▁Try	-10.7601
▁fascinating	-10.7608
▁Person	-10.7613
▁handler	-10.7613
▁Surgery	-10.7627
▁marks	-10.7627
▁Internet	-10.763
▁Institute	-10.763
▁boolean	-10.7633
▁representation	-10.7651
▁formation	-10.7652
▁ataxia	-10.7658
▁shift	-10.7671
▁damaged	-10.7672
▁washing	-10.7675
▁tech	-10.7675
▁AJAX	-10.7675
▁boundaries	-10.7675
▁Acid	-10.7679
▁d	-10.7681
▁sorting	-10.7685
▁Management	-10.7687
9	-10.7692
▁behaviors	-10.7692
▁resume	-10.7694
▁json	-10.7695
▁grains	-10.7698
▁channels	-10.7699
style	-10.7708
▁loved	-10.7709
▁girls	-10.7713
▁responses	-10.7716
▁hope	-10.7723
▁aim	-10.7725
▁funds	-10.7739
▁matching	-10.7739
`.	-10.774
▁interfere	-10.7743
▁Regular	-10.7744
▁implications	-10.7745
▁mouse	-10.7755
▁fee	-10.7758
csv	-10.7758
▁although	-10.7763
▁compile	-10.7777
▁summer	-10.7777
▁dreams	-10.7779
▁sentiment	-10.7782
▁calories	-10.7785
▁act	-10.7793
▁ban	-10.78
▁myopathy	-10.7802
▁batch	-10.7806
▁adult	-10.7808
▁disadvantages	-10.7808
▁neuropathy	-10.7811
▁Delhi	-10.7812
▁connecting	-10.7819
▁dataframe	-10.7832
▁cough	-10.7834
▁creation	-10.7838
▁entry	-10.7838
▁combined	-10.7839
▁Ultimately	-10.7841
▁arr	-10.7844
▁productivity	-10.7851
▁gradually	-10.7851
▁happened	-10.7857
▁timeout	-10.7858
▁Docker	-10.786
▁California	-10.7862
▁locate	-10.7866
▁tested	-10.7868
▁cast	-10.7874
▁socket	-10.7878
▁fetus	-10.788
▁nearest	-10.7881
▁fitness	-10.7882
My	-10.7885
no	-10.7889
▁automate	-10.7895
▁sessions	-10.7897
▁herbal	-10.79
▁VBA	-10.7902
▁dishes	-10.791
▁contaminated	-10.791
▁Q	-10.7928
▁fatty	-10.7929
▁soil	-10.7931
▁urination	-10.7939
▁insulin	-10.794
▁validate	-10.7941
▁Time	-10.7947
▁awareness	-10.7953
▁Firstly	-10.7953
▁frameworks	-10.7959
▁mapping	-10.7968
if	-10.7972
▁density	-10.7982
▁absorption	-10.7989
▁sheet	-10.799
width	-10.8
num	-10.8001
▁float	-10.8005
▁Please	-10.8007
▁generic	-10.8018
▁de	-10.802
▁expectations	-10.8026
td	-10.8026
▁etc	-10.8037
▁engagement	-10.8039
▁yes	-10.8045
64	-10.8046
▁blocks	-10.8058
▁century	-10.8059
▁capable	-10.8061
▁modified	-10.8065
org	-10.8065
▁troubleshoot	-10.8067
▁replacing	-10.8069
▁digits	-10.8069
▁intervention	-10.8076
▁competition	-10.8086
▁interventions	-10.8092
▁Manager	-10.8093
▁SEO	-10.8093
▁sea	-10.8093
▁nasal	-10.8105
▁particles	-10.8107
▁attend	-10.8111
▁buildup	-10.8112
▁identifying	-10.812
▁W	-10.8123
▁forums	-10.8126
▁advancements	-10.8127
▁leukemia	-10.8129
▁coughing	-10.8131
▁funding	-10.8137
▁wall	-10.8139
▁paralysis	-10.8139
▁scheduled	-10.8147
▁mg	-10.8148
▁standards	-10.8156
▁Physical	-10.8159
▁stability	-10.8159
▁scripts	-10.8161
gastrointestinal	-10.8165
▁greatly	-10.8168
▁notifications	-10.8176
▁whenever	-10.8176
▁max	-10.8178
▁optimizing	-10.818
▁traits	-10.818
row	-10.8195
▁skill	-10.8195
▁sunlight	-10.82
▁Foundation	-10.8201
▁butter	-10.8213
▁corner	-10.8218
▁State	-10.8218
▁felt	-10.822
▁acids	-10.8222
coming	-10.8227
▁backup	-10.8244
▁equivalent	-10.8249
▁optimization	-10.8249
▁Group	-10.8251
▁prime	-10.8252
▁train	-10.8259
▁brief	-10.826
▁USA	-10.8262
bit	-10.8268
▁patch	-10.827
▁existence	-10.8272
▁arms	-10.8274
▁analytics	-10.8293
▁hormones	-10.8295
$	-10.8301
▁escape	-10.8302
▁nuclear	-10.8303
▁formal	-10.8304
▁201	-10.8305
▁civil	-10.8313
▁addresses	-10.8317
▁illness	-10.8322
▁references	-10.8323
▁vote	-10.8327
▁belief	-10.8333
source	-10.8334
▁harder	-10.8336
▁engines	-10.8336
▁peace	-10.8344
▁WPF	-10.8344
▁echo	-10.8344
year	-10.8352
▁Ok	-10.8353
▁France	-10.8354
▁principles	-10.8361
▁coordinates	-10.8363
▁capacity	-10.8365
▁plastic	-10.8367
▁Kidney	-10.8374
▁integration	-10.8374
▁teaching	-10.8375
▁registered	-10.8377
▁finally	-10.8379
▁texture	-10.8387
▁comparison	-10.8394
▁Machine	-10.8397
▁pieces	-10.8404
less	-10.8412
Error	-10.8415
▁1:	-10.8416
▁smart	-10.8417
▁colleges	-10.8418
▁race	-10.8428
▁filters	-10.8429
▁printing	-10.8434
▁teach	-10.8444
▁Again	-10.8447
▁artery	-10.8449
▁skeletal	-10.8457
▁m	-10.8459
List	-10.8461
▁cookies	-10.8462
▁tongue	-10.8469
V	-10.8472
▁participate	-10.8473
▁render	-10.8476
▁IT	-10.8483
▁jaundice	-10.849
▁mathematical	-10.8497
py	-10.8499
▁inheritance	-10.8499
▁warming	-10.85
▁Settings	-10.8506
▁pandemic	-10.851
▁MBA	-10.851
▁increases	-10.8511
▁restore	-10.8517
df	-10.852
▁university	-10.852
▁User	-10.8527
▁claim	-10.853
New	-10.853
▁choosing	-10.853
▁j	-10.8531
▁organized	-10.8536
▁logo	-10.8545
▁circle	-10.8546
▁hosting	-10.8549
▁saving	-10.8549
To	-10.855
element	-10.8552
▁investors	-10.8553
check	-10.8557
▁selling	-10.8558
▁males	-10.8581
▁ads	-10.8582
▁UK	-10.8586
▁providers	-10.8587
▁nearby	-10.8594
▁reputation	-10.8594
▁chicken	-10.8595
▁checkbox	-10.8597
ers	-10.8599
▁visiting	-10.8601
▁calm	-10.8602
▁stick	-10.8605
▁fingers	-10.8607
']	-10.8613
▁Selenium	-10.8615
▁nothing	-10.8615
▁injections	-10.8618
▁fire	-10.8627
▁persists	-10.8628
▁Be	-10.8629
▁pull	-10.8637
▁flat	-10.8638
▁timestamp	-10.8643
▁Social	-10.8647
▁machines	-10.8648
▁displaying	-10.8648
▁MS	-10.8656
GB	-10.8657
free	-10.8667
▁creativity	-10.8668
▁independent	-10.8669
▁obesity	-10.8678
▁ancient	-10.8679
▁painting	-10.8697
▁hormonal	-10.87
▁cursor	-10.872
▁lean	-10.872
▁assembly	-10.8721
▁async	-10.8731
▁administration	-10.8732
▁numerous	-10.8732
▁articles	-10.8734
for	-10.874
making	-10.8743
▁ease	-10.8745
▁logical	-10.8747
▁Depend	-10.8747
▁cheese	-10.8756
▁noise	-10.8757
▁author	-10.8758
▁resolves	-10.876
▁permanent	-10.8763
▁refresh	-10.8764
▁Image	-10.8766
▁calculated	-10.8769
▁demonstrate	-10.877
▁Diabetes	-10.8775
▁Therefore	-10.8775
▁rendering	-10.8779
▁organ	-10.878
▁Categoriz	-10.8798
▁Samsung	-10.8829
▁Multiple	-10.8831
▁satisfaction	-10.8839
▁deletion	-10.8843
▁addressing	-10.8847
▁confidence	-10.8848
▁admission	-10.8854
li	-10.8878
▁apart	-10.8879
▁MongoDB	-10.8884
▁Store	-10.8885
▁formats	-10.8888
▁cats	-10.8888
▁detected	-10.8892
▁200	-10.8892
▁BY	-10.8906
▁stronger	-10.8909
▁aids	-10.8921
▁triangle	-10.8931
▁Start	-10.8938
▁season	-10.8938
open	-10.8943
▁established	-10.8946
▁High	-10.8946
▁endpoint	-10.8947
▁Familia	-10.8958
▁tough	-10.8962
▁mistake	-10.8963
▁str	-10.897
▁healing	-10.897
▁manufacturing	-10.8971
▁feeding	-10.8972
▁typing	-10.8975
error	-10.8976
▁aren	-10.8979
▁swimming	-10.8982
▁nutrition	-10.8985
▁Play	-10.8987
▁teacher	-10.8988
▁buying	-10.8988
▁orders	-10.8993
▁joy	-10.8998
▁took	-10.8999
▁bright	-10.9
▁Control	-10.9002
N	-10.9005
https	-10.9006
▁worsen	-10.9009
▁alert	-10.901
model	-10.9011
▁molecules	-10.9012
▁Maven	-10.9015
▁wealth	-10.9019
▁demonetization	-10.9025
▁cuisine	-10.903
▁undefined	-10.9034
▁preparing	-10.9036
▁Medications	-10.9037
▁focusing	-10.9039
▁forces	-10.904
▁integrate	-10.9044
▁computers	-10.9047
▁Acute	-10.9047
▁caching	-10.9048
▁summary	-10.9051
▁banking	-10.9059
▁intense	-10.9059
▁solving	-10.9061
title	-10.9061
▁trained	-10.9067
▁Avoid	-10.9076
▁willing	-10.9077
▁dairy	-10.9082
▁drivers	-10.9091
▁Date	-10.9101
python	-10.9116
▁perspectives	-10.9118
▁evaluation	-10.9121
▁generation	-10.9122
▁resistance	-10.9125
option	-10.913
▁newer	-10.9131
back	-10.9134
▁baking	-10.9136
git	-10.9138
▁losing	-10.9139
▁unnecessary	-10.9147
▁initialize	-10.9157
▁Health	-10.9159
▁pricing	-10.9159
▁notification	-10.9169
▁acne	-10.917
▁fiber	-10.9176
▁portion	-10.9176
▁partners	-10.9187
io	-10.9193
▁placed	-10.9195
▁ulcers	-10.9196
▁60	-10.92
▁crime	-10.9211
▁pet	-10.922
▁defect	-10.9221
▁sector	-10.9222
▁At	-10.9224
▁signals	-10.9225
▁angle	-10.9225
▁availability	-10.9226
▁combat	-10.9226
▁stable	-10.9227
▁themes	-10.9227
true	-10.9231
▁encountered	-10.925
▁RAM	-10.9254
▁g	-10.9255
▁dedicated	-10.926
▁immigration	-10.9261
▁designing	-10.9263
▁expiration	-10.9272
▁Spanish	-10.9283
▁notice	-10.9301
▁strengthen	-10.9304
▁lock	-10.9306
▁acute	-10.9308
▁experiment	-10.9309
▁shoes	-10.931
▁},	-10.9317
▁Heart	-10.9319
▁14	-10.9325
▁joining	-10.9329
▁generating	-10.9329
▁secret	-10.9335
object	-10.9339
▁master	-10.9342
▁vehicles	-10.9349
▁environments	-10.9351
known	-10.9354
▁parallel	-10.9359
▁cysts	-10.9359
▁ideal	-10.936
▁pair	-10.9361
world	-10.9362
▁diversity	-10.9362
▁arm	-10.9372
▁protected	-10.9373
▁2:	-10.9375
▁gravity	-10.9376
▁struggle	-10.9377
▁trip	-10.9383
▁abdomen	-10.9386
▁append	-10.9387
▁expenses	-10.9388
▁extent	-10.9397
▁became	-10.9399
▁achieving	-10.9402
▁triggered	-10.9404
▁javascript	-10.9407
▁fewer	-10.9408
▁pop	-10.9413
▁avoided	-10.9422
▁safely	-10.9425
▁flush	-10.9431
Net	-10.9432
▁directories	-10.9433
▁dialogue	-10.9439
▁Jenkins	-10.9442
▁Was	-10.9443
▁Science	-10.9452
▁Explorer	-10.9455
▁workers	-10.9455
▁tense	-10.9456
▁psychological	-10.9465
▁automation	-10.9466
12	-10.9469
▁flu	-10.9469
▁disk	-10.9477
▁JOIN	-10.9477
▁ocean	-10.9485
▁sodium	-10.9486
▁qualities	-10.9488
▁Services	-10.9493
▁completing	-10.9511
▁dating	-10.9511
▁Click	-10.9521
▁entities	-10.9523
and	-10.9528
▁epilepsy	-10.9534
▁department	-10.9535
▁partial	-10.9536
▁electricity	-10.9546
result	-10.9562
▁comfort	-10.9567
▁enlarged	-10.957
▁constraints	-10.9573
▁obstruction	-10.9578
▁basis	-10.9582
▁Eating	-10.9583
▁Y	-10.9583
▁German	-10.9589
▁leader	-10.9591
▁numbness	-10.9593
▁Anything	-10.9593
▁NULL	-10.9599
▁collaboration	-10.9603
▁sweating	-10.9608
▁Tell	-10.9614
▁recognized	-10.9614
▁Typically	-10.9616
▁GPT	-10.9618
▁exposed	-10.9618
▁episodes	-10.9626
▁opened	-10.9629
▁tremors	-10.9631
▁colon	-10.9638
▁http	-10.9638
▁desktop	-10.964
3.	-10.9642
▁downside	-10.9642
▁bytes	-10.9643
▁__	-10.9646
▁numpy	-10.9646
▁estate	-10.9652
day	-10.9661
▁concerned	-10.9666
▁imported	-10.9667
▁marriage	-10.9674
▁caution	-10.9675
▁deleting	-10.9686
▁held	-10.9691
▁teams	-10.9696
▁Sodium	-10.9698
▁gift	-10.9698
▁freedom	-10.971
▁incontinence	-10.9722
▁Primary	-10.9723
▁USB	-10.9727
▁smoke	-10.9729
▁counter	-10.9735
▁likelihood	-10.9746
▁Smith	-10.9751
▁slowly	-10.9754
▁git	-10.9754
▁keywords	-10.9755
▁modal	-10.9756
▁DOM	-10.976
▁trash	-10.977
▁Central	-10.9771
▁raw	-10.9777
▁friendly	-10.9782
▁9.	-10.9793
▁$(	-10.9793
▁transform	-10.9803
▁Develop	-10.9805
▁parsing	-10.9806
body	-10.9814
▁adrenal	-10.9817
▁instruction	-10.9818
▁invalid	-10.9818
ng	-10.9819
▁consistently	-10.9821
▁entirely	-10.9823
▁transplantation	-10.9829
())	-10.9832
▁throw	-10.9833
ity	-10.9833
▁coverage	-10.9843
▁Parkinson	-10.9847
▁decided	-10.9849
▁executing	-10.9853
▁workplace	-10.9854
▁saw	-10.9855
▁innovative	-10.9865
▁populations	-10.9866
▁diagnostic	-10.9866
▁mixed	-10.9869
▁incorporate	-10.9873
▁respectively	-10.9878
▁herbs	-10.9886
▁construction	-10.9889
▁born	-10.9893
▁presentation	-10.9895
▁locations	-10.9901
▁popularity	-10.9904
▁subjects	-10.9907
▁qualifications	-10.9909
▁linear	-10.9913
▁spine	-10.9914
▁proof	-10.9916
▁yellow	-10.9919
▁drawing	-10.9921
▁brown	-10.9928
▁fashion	-10.9929
▁Big	-10.9932
Array	-10.9934
▁assigned	-10.9936
▁police	-10.9937
▁URLs	-10.9945
find	-10.9946
letting	-10.9948
▁duplicate	-10.9961
▁config	-10.9962
▁Genetic	-10.9963
▁joints	-10.9968
▁Center	-10.9971
▁preferred	-10.9975
password	-10.9975
▁dish	-10.9975
▁windows	-10.9977
▁valve	-10.9977
▁queue	-10.9977
▁controversial	-10.9986
▁delayed	-10.999
▁servers	-10.9993
▁differently	-10.9993
▁Cell	-11.0003
▁origin	-11.0008
▁typical	-11.0009
▁usual	-11.0009
▁Simply	-11.0022
▁php	-11.0023
▁vein	-11.0024
▁comment	-11.0029
▁Patients	-11.0029
SELECT	-11.0031
▁quitting	-11.0034
▁probability	-11.0035
▁defining	-11.0035
▁toilet	-11.0036
▁Second	-11.0038
|	-11.004
▁carcinoma	-11.0046
▁affiliate	-11.0047
▁weak	-11.0047
▁HIV	-11.0071
▁Native	-11.0075
▁liquid	-11.0075
▁simpler	-11.0078
▁metabolism	-11.0083
▁modifying	-11.0085
str	-11.0086
▁limits	-11.0095
▁empathy	-11.0095
▁Table	-11.0097
▁conditional	-11.011
▁Check	-11.0115
apple	-11.0118
▁insight	-11.0126
▁producing	-11.0128
▁broken	-11.0133
▁achieved	-11.0135
▁European	-11.0137
▁statistics	-11.0139
▁closing	-11.0146
▁offered	-11.0155
▁pixels	-11.0156
▁drops	-11.0157
▁reputable	-11.0157
▁optional	-11.0163
▁pairs	-11.0173
▁extensions	-11.0175
▁accepted	-11.0183
▁Plus	-11.0185
▁symbols	-11.0191
▁strict	-11.0195
▁discrimination	-11.0196
read	-11.0197
▁laser	-11.0197
▁prepared	-11.0198
▁researchers	-11.0204
▁labor	-11.0207
▁Console	-11.021
▁impacts	-11.0212
▁vs	-11.0224
▁learned	-11.023
▁Childhood	-11.0231
▁gaming	-11.0231
▁electrons	-11.0238
▁Vue	-11.0243
▁shorter	-11.0249
▁goods	-11.0251
▁hip	-11.0251
▁Maps	-11.0253
▁pip	-11.0256
▁proven	-11.0258
▁half	-11.0258
▁cluster	-11.0262
▁WordPress	-11.0269
▁initiatives	-11.0278
▁Bank	-11.0288
▁inserted	-11.0288
▁extend	-11.029
▁Class	-11.0291
create	-11.0293
▁hobbies	-11.0295
▁shock	-11.0296
▁sorted	-11.0303
▁/>	-11.0305
▁alpha	-11.031
▁functioning	-11.0316
▁III	-11.0318
▁comparing	-11.032
▁visibility	-11.0321
▁honest	-11.0329
▁papers	-11.0329
▁restarting	-11.0329
output	-11.0329
▁everyday	-11.0333
▁distinct	-11.0333
▁sides	-11.0334
▁conduct	-11.0334
▁Spark	-11.0339
▁license	-11.0344
▁unused	-11.0345
▁innovation	-11.0349
▁San	-11.0361
▁adapter	-11.0365
▁subjective	-11.037
▁Three	-11.0371
▁slower	-11.0373
▁imbalances	-11.0383
▁produces	-11.0383
▁banks	-11.0386
▁templates	-11.0387
▁relievers	-11.0389
▁atrophy	-11.0395
▁significance	-11.0395
▁Determine	-11.0396
▁fails	-11.0397
▁raise	-11.0399
▁comma	-11.0402
arr	-11.0412
email	-11.0422
▁cons	-11.0431
▁mutual	-11.0432
▁poverty	-11.0433
▁entertainment	-11.0433
▁quantum	-11.0434
▁fruit	-11.0434
▁birds	-11.0434
from	-11.0444
▁attractive	-11.0445
▁hypertension	-11.0445
2)	-11.0452
▁actively	-11.0452
▁13	-11.0454
▁flight	-11.0458
▁html	-11.0463
▁Gmail	-11.0471
▁die	-11.0474
▁40	-11.0475
▁interaction	-11.0479
▁Patch	-11.0484
▁patches	-11.0485
▁quote	-11.0501
▁edge	-11.0502
▁IE	-11.0506
▁Academy	-11.0509
▁experimental	-11.0511
▁dress	-11.0518
use	-11.052
▁downloaded	-11.052
query	-11.0527
Id	-11.0528
▁nuts	-11.0533
▁AS	-11.0533
▁formatted	-11.0537
▁restaurants	-11.0543
▁interfaces	-11.0548
▁emphasis	-11.0548
▁prolonged	-11.0548
▁standing	-11.0549
▁consciousness	-11.0549
ID	-11.0555
specific	-11.0559
▁laboratory	-11.0573
▁consumer	-11.0574
▁expired	-11.0574
▁literature	-11.0586
▁delicious	-11.0586
▁desire	-11.0602
▁flavor	-11.0605
▁leaving	-11.0612
▁truly	-11.0612
▁Transderm	-11.0616
old	-11.0627
▁hotel	-11.0633
▁abstract	-11.0636
▁ArrayList	-11.0648
▁forest	-11.0649
▁dimensions	-11.0651
▁diagnosing	-11.0651
▁inputs	-11.0656
▁stocks	-11.0657
▁<<	-11.0661
commerce	-11.0663
▁notation	-11.0664
▁heavily	-11.0664
▁Over	-11.0667
content	-11.0671
▁deals	-11.0675
▁CPU	-11.0675
▁zip	-11.0677
▁followers	-11.0678
▁African	-11.0686
▁mathematics	-11.069
username	-11.0697
hello	-11.0702
▁earth	-11.0708
▁foundation	-11.0713
!"	-11.0715
▁h	-11.0719
▁park	-11.0719
ulmonary	-11.0723
▁warnings	-11.0723
api	-11.0726
▁zone	-11.0731
▁weaknesses	-11.0731
▁phones	-11.0742
▁inhibitors	-11.0745
].	-11.0755
This	-11.0755
▁suggested	-11.0764
▁finish	-11.0768
Without	-11.0769
▁controlling	-11.0769
▁toxins	-11.078
▁layers	-11.0785
▁drawbacks	-11.0786
response	-11.0795
▁calendar	-11.0795
▁divide	-11.0797
▁penis	-11.0807
▁hole	-11.0808
▁Hibernate	-11.0809
▁consists	-11.0816
▁fake	-11.0817
▁pros	-11.0826
▁mask	-11.0827
page	-11.0828
▁knee	-11.083
32	-11.0832
▁Don	-11.0834
▁moral	-11.0834
do	-11.0835
▁tube	-11.0845
▁reflect	-11.0845
▁spoken	-11.0849
▁electronics	-11.0849
▁gold	-11.0852
▁cookie	-11.0852
▁leaders	-11.0853
▁survive	-11.0856
▁Non	-11.0858
▁passage	-11.086
▁Most	-11.0862
▁justice	-11.0862
▁magnetic	-11.0862
▁payments	-11.087
▁confident	-11.0873
Artificial	-11.0874
▁dehydrogenase	-11.0874
▁Union	-11.0877
▁exclude	-11.0878
-19	-11.0878
child	-11.0878
▁frustrating	-11.0887
▁Prime	-11.0888
▁pelvic	-11.0888
▁studied	-11.0901
▁relations	-11.0908
▁nerves	-11.0917
▁sweet	-11.0927
getElementById	-11.0928
▁star	-11.0936
count	-11.0937
▁posture	-11.095
▁tweet	-11.0952
▁pursuing	-11.0954
▁reduction	-11.0956
▁loops	-11.096
▁Hyper	-11.0962
▁Entity	-11.0964
▁Others	-11.0965
▁True	-11.0967
▁hospitalization	-11.0967
▁beans	-11.0977
red	-11.0987
person	-11.0988
▁antidepressants	-11.0991
▁predictions	-11.0992
▁depth	-11.1002
▁JS	-11.1004
▁met	-11.1005
▁hepatitis	-11.1007
▁timeline	-11.1008
▁vocabulary	-11.1008
▁r	-11.1011
▁remaining	-11.1014
▁placement	-11.102
▁axis	-11.1023
▁beach	-11.1025
▁ahead	-11.1027
▁npm	-11.1031
▁transfusions	-11.1032
▁drain	-11.1034
filter	-11.1034
ortic	-11.1037
write	-11.1039
▁appreciate	-11.1044
▁fail	-11.1044
▁foreach	-11.105
▁attending	-11.105
];	-11.1052
Path	-11.1054
▁co	-11.1054
▁physically	-11.1056
▁tooth	-11.1062
▁disabling	-11.1062
▁commercial	-11.1071
▁APIs	-11.1071
▁centers	-11.1073
▁eliminate	-11.1074
▁signature	-11.1075
▁glucose	-11.1076
▁thinners	-11.1076
▁medium	-11.1077
▁limiting	-11.108
▁Two	-11.1083
▁withdrawal	-11.1087
▁asynchronous	-11.1087
▁rid	-11.1092
ate	-11.1093
▁menstrua	-11.1096
▁transmission	-11.11
▁Modi	-11.1103
▁manual	-11.1103
▁identified	-11.1103
▁Qt	-11.1106
Class	-11.1113
▁adapt	-11.1114
▁wound	-11.1114
▁Africa	-11.1115
▁renal	-11.1115
▁z	-11.1116
▁stopping	-11.1116
▁infinite	-11.1117
▁thin	-11.112
▁exciting	-11.1129
▁smooth	-11.113
▁Model	-11.1132
self	-11.1139
▁Engineering	-11.1148
▁responsive	-11.1154
▁relate	-11.1154
▁glass	-11.1156
▁specialist	-11.1156
▁Keep	-11.116
▁Wi	-11.1169
▁executable	-11.1174
▁moderate	-11.1179
▁creams	-11.1185
Button	-11.1187
▁filtering	-11.1196
▁recommendation	-11.1198
▁International	-11.1199
▁qualified	-11.1214
▁$('	-11.122
▁subscription	-11.1225
▁Gradle	-11.1226
-8	-11.1228
▁wider	-11.1229
▁ratio	-11.1233
Column	-11.1239
▁Americans	-11.1239
▁metaphor	-11.1241
▁DateTime	-11.1243
▁planets	-11.1245
▁Act	-11.1246
▁2000	-11.126
man	-11.126
▁bed	-11.1272
▁strain	-11.1275
max	-11.1284
▁adjectives	-11.1289
▁disposed	-11.1291
Item	-11.1295
▁surveys	-11.1302
▁phase	-11.1305
▁macro	-11.1309
label	-11.132
▁electronic	-11.1323
▁campaigns	-11.1323
▁fatal	-11.1325
▁town	-11.1326
▁reader	-11.133
ray	-11.1332
▁dioxide	-11.1336
▁intended	-11.1336
▁delegate	-11.1354
▁couples	-11.1355
10	-11.1356
step	-11.1358
▁Project	-11.1358
order	-11.1361
▁vast	-11.1363
▁cook	-11.1363
▁afraid	-11.1363
▁sensation	-11.1364
▁apple	-11.1367
▁lenses	-11.1378
▁discounts	-11.1382
▁caught	-11.1391
▁violence	-11.1394
▁increasingly	-11.1398
▁declared	-11.14
▁concentration	-11.1406
▁tension	-11.1406
▁speakers	-11.1407
▁mission	-11.1421
▁distributed	-11.1422
ever	-11.1422
include	-11.1424
▁actors	-11.1425
▁drag	-11.1435
▁Khan	-11.1443
▁timer	-11.1446
▁gone	-11.145
▁organic	-11.1452
▁Search	-11.1455
▁hit	-11.1456
▁influenced	-11.1459
▁despite	-11.1462
▁lymphoma	-11.1463
▁swollen	-11.1476
▁thrown	-11.1477
▁margin	-11.148
▁mark	-11.1482
▁ages	-11.1486
▁antibodies	-11.149
▁firewall	-11.1491
height	-11.1494
▁covered	-11.1496
▁[1,	-11.1498
▁powder	-11.1505
▁road	-11.1505
▁displays	-11.1512
▁curve	-11.1517
▁altogether	-11.1518
▁stature	-11.1518
▁outer	-11.1528
▁Application	-11.1533
▁classify	-11.1535
▁raised	-11.1538
steroid	-11.1544
▁Black	-11.1546
▁Coursera	-11.1546
▁transparency	-11.1546
▁shortcut	-11.155
▁leg	-11.155
▁Read	-11.1552
▁trading	-11.156
▁investments	-11.1562
▁troubleshooting	-11.1563
▁beginner	-11.1563
▁stretching	-11.1569
▁divided	-11.158
▁odd	-11.1583
▁vehicle	-11.1592
▁burn	-11.1595
start	-11.1598
User	-11.1602
▁contributing	-11.1603
▁rotation	-11.1608
▁net	-11.1614
▁spots	-11.1616
▁Flutter	-11.1619
test	-11.1619
▁finished	-11.1622
▁Test	-11.1622
▁paste	-11.1624
▁came	-11.1627
▁sore	-11.1633
Fi	-11.1637
▁adventure	-11.1637
▁examine	-11.164
▁Computer	-11.164
▁np	-11.1642
▁Furthermore	-11.1646
▁societal	-11.1646
-3	-11.1658
▁convenient	-11.1659
▁transparent	-11.1665
▁clearly	-11.1673
▁garlic	-11.1675
▁Or	-11.1678
▁voltage	-11.1678
with	-11.1681
▁Ubuntu	-11.169
number	-11.169
▁converted	-11.1694
▁migration	-11.1695
aimed	-11.1698
▁PC	-11.1701
▁Look	-11.1704
▁benign	-11.1704
▁proposed	-11.1705
▁disrupt	-11.1716
▁graduates	-11.1717
▁Mumbai	-11.1718
ion	-11.1732
▁Bangalore	-11.1733
▁Lastly	-11.1733
▁messaging	-11.1734
▁His	-11.1734
▁toxic	-11.1737
▁minerals	-11.1737
Key	-11.174
J	-11.1742
▁inserting	-11.1744
▁cramps	-11.1749
▁Hereditary	-11.1749
▁restart	-11.1751
▁genre	-11.1753
▁automated	-11.1754
▁GET	-11.1755
▁figures	-11.1756
▁operators	-11.1757
▁cardiovascular	-11.1762
▁scheme	-11.1766
▁traveling	-11.1767
▁routes	-11.1772
▁padding	-11.1781
W	-11.1787
Image	-11.1789
▁responsibility	-11.1791
▁egg	-11.1798
view	-11.1805
▁continuous	-11.1806
Controller	-11.1808
▁contributions	-11.1815
▁Snapchat	-11.182
sum	-11.1822
▁smell	-11.1839
▁meant	-11.185
▁viruses	-11.1851
▁Since	-11.1865
▁scores	-11.187
▁newborn	-11.1873
▁optimal	-11.1877
▁operate	-11.1878
▁chosen	-11.188
▁clotting	-11.1893
▁trusted	-11.1899
▁Word	-11.1905
▁OpenCV	-11.1908
▁simultaneously	-11.1908
▁intestine	-11.1913
▁hiring	-11.1922
▁magical	-11.1926
▁Custom	-11.193
▁Developer	-11.1932
▁mechanisms	-11.1935
▁respectful	-11.1935
▁Alzheimer	-11.1937
▁females	-11.1938
▁atoms	-11.1939
▁understandable	-11.1942
▁fragment	-11.1945
▁upgrade	-11.1947
▁secondary	-11.1948
▁chills	-11.1949
▁facilities	-11.1952
▁headline	-11.1961
▁surgeries	-11.1967
▁mysql	-11.1967
▁absolute	-11.197
▁occurred	-11.1983
▁peaceful	-11.1994
▁ball	-11.1997
▁Maybe	-11.1997
▁couldn	-11.2
▁introduced	-11.2002
▁glands	-11.2009
▁packaging	-11.2012
▁supporting	-11.2024
▁transport	-11.2026
▁Flask	-11.2027
▁independence	-11.2027
▁heal	-11.2029
▁simplify	-11.2029
▁listed	-11.203
▁La	-11.2038
▁outweigh	-11.2041
▁readers	-11.2043
▁k	-11.2046
▁previously	-11.2048
▁fund	-11.205
▁filename	-11.2053
as	-11.2068
▁Udemy	-11.2071
▁Intelligence	-11.2071
▁staff	-11.2076
▁chocolate	-11.2077
▁friendship	-11.2079
▁orally	-11.2084
No	-11.2089
▁survey	-11.2093
▁gentle	-11.21
▁concrete	-11.2101
▁compress	-11.2101
▁interval	-11.2101
▁90	-11.2102
▁Los	-11.2107
▁scenarios	-11.2107
▁separately	-11.2109
MM	-11.211
▁sores	-11.2115
▁rock	-11.2116
▁agent	-11.2117
▁Jio	-11.2117
▁Asia	-11.2117
▁extended	-11.2118
am	-11.2125
▁claims	-11.213
▁Unity	-11.2133
▁greatest	-11.2134
▁continues	-11.214
▁phrases	-11.2141
Content	-11.2144
▁Firefox	-11.2147
▁Islam	-11.2148
▁Disorders	-11.2155
▁router	-11.2158
▁crisis	-11.2161
▁80	-11.2164
▁JEE	-11.2165
],	-11.2167
▁billion	-11.2168
▁agents	-11.2169
▁OS	-11.217
▁orientation	-11.2172
responsibilities	-11.2176
fat	-11.2177
▁DataFrame	-11.2183
▁Hydro	-11.2192
▁equality	-11.2193
▁promise	-11.2198
server	-11.2199
▁Form	-11.2199
▁identifier	-11.2202
tr	-11.2204
▁sclerosis	-11.2206
▁funny	-11.2208
▁startups	-11.2209
▁Tomcat	-11.2222
▁Content	-11.2224
replace	-11.2232
▁highlight	-11.2232
▁gravitational	-11.2239
▁collect	-11.2251
▁circulation	-11.2252
▁mostly	-11.2253
++)	-11.2253
▁fainting	-11.2253
▁shapes	-11.2254
▁otherwise	-11.2258
▁School	-11.2261
location	-11.2261
▁Galaxy	-11.2267
▁General	-11.2284
▁robot	-11.2292
▁tensions	-11.2297
▁...	-11.2298
▁Network	-11.2299
append	-11.2302
▁2020	-11.2309
▁Women	-11.2314
▁showcase	-11.2314
▁ratings	-11.2315
▁Dim	-11.232
▁reinstalling	-11.2334
▁Choose	-11.2335
▁smartphone	-11.2337
▁interpret	-11.2338
▁sold	-11.2338
▁basics	-11.2338
▁holding	-11.234
▁realistic	-11.2344
▁bodies	-11.2345
▁initialized	-11.2351
▁moves	-11.2353
▁metal	-11.2353
▁deployment	-11.2353
▁Age	-11.2355
20	-11.2357
▁introduction	-11.236
▁weapons	-11.2361
▁outdoor	-11.2369
▁bug	-11.2371
▁elaborate	-11.2375
▁College	-11.2375
▁datasets	-11.2377
▁however	-11.2377
▁formed	-11.238
▁replaced	-11.2383
▁curable	-11.239
▁priority	-11.2394
▁institutions	-11.2397
▁Post	-11.2399
bar	-11.2402
▁measuring	-11.2405
▁loyalty	-11.2405
▁couple	-11.2414
▁freelance	-11.242
▁inequality	-11.2421
▁leaves	-11.2426
▁stimulation	-11.2427
▁industrial	-11.2427
▁hasn	-11.2428
▁bias	-11.2435
▁immunotherapy	-11.2436
▁impossible	-11.2436
▁spleen	-11.2436
▁prevention	-11.2443
▁ears	-11.245
▁relax	-11.2453
▁Long	-11.2458
▁protocols	-11.246
▁refrigerator	-11.2461
));	-11.2463
request	-11.2472
▁closer	-11.2473
▁bond	-11.248
▁embedded	-11.2484
▁cm	-11.2485
▁visitors	-11.2486
()"	-11.2488
▁intravenous	-11.2498
Date	-11.2504
▁CA	-11.2504
▁meets	-11.2506
▁encountering	-11.251
▁adds	-11.2513
▁SQLite	-11.2513
▁decline	-11.2519
▁passwords	-11.2524
event	-11.2529
▁GPS	-11.2534
▁scrolling	-11.2536
java	-11.2539
Table	-11.2549
android	-11.2561
col	-11.2563
▁hydrogen	-11.2563
Get	-11.2569
▁fractures	-11.2571
▁incorporating	-11.2577
▁functional	-11.2579
▁calculations	-11.258
▁began	-11.2583
▁Park	-11.2588
▁remind	-11.2594
▁metadata	-11.2596
▁Mexico	-11.2597
▁contacting	-11.2598
▁Map	-11.2603
▁shoulder	-11.2607
▁bill	-11.2608
▁wrap	-11.2609
▁importing	-11.2609
▁eligible	-11.261
▁Language	-11.2616
▁respective	-11.2625
▁street	-11.2638
▁ride	-11.2641
▁infertility	-11.2641
oriented	-11.2651
▁leaks	-11.2653
▁bucket	-11.2654
▁Korea	-11.2655
▁dedication	-11.2656
▁classification	-11.2657
▁discussing	-11.2658
▁assets	-11.2664
▁counts	-11.2665
▁religions	-11.2665
▁structured	-11.2666
▁contract	-11.2667
▁guy	-11.2668
▁opposite	-11.2672
jpg	-11.2672
▁wouldn	-11.2677
▁teachers	-11.2681
▁+=	-11.2684
▁viewed	-11.2686
▁Me	-11.2687
▁organize	-11.2688
▁persist	-11.2689
▁coma	-11.2693
▁intolerance	-11.2706
▁determin	-11.2706
▁AND	-11.271
▁db	-11.2714
▁stimulate	-11.2715
▁tingling	-11.272
▁Anemia	-11.272
▁presidential	-11.2721
▁IIT	-11.2723
volving	-11.2726
▁modifications	-11.2729
Set	-11.2731
parent	-11.2733
▁exceed	-11.2734
▁lambda	-11.2736
▁inflammatory	-11.2736
mm	-11.2737
▁wish	-11.2737
▁advise	-11.2737
▁iframe	-11.2739
▁Na	-11.2744
layout	-11.2748
▁Global	-11.2754
▁bonds	-11.2757
▁Bluetooth	-11.276
▁mountain	-11.2766
▁owner	-11.2766
▁Minister	-11.2768
▁writer	-11.2773
▁translation	-11.2777
▁falls	-11.2777
▁tall	-11.2779
▁Association	-11.2784
▁expansion	-11.2785
▁aftercare	-11.2791
What	-11.2796
format	-11.2798
load	-11.281
▁stool	-11.2813
ul	-11.2817
▁enabling	-11.2817
▁UTF	-11.2819
▁guaranteed	-11.2819
▁measured	-11.2821
▁maps	-11.2822
▁Best	-11.2824
▁IQ	-11.2828
▁commitment	-11.2829
▁himself	-11.2833
▁registration	-11.2833
▁graphic	-11.2843
▁toes	-11.2852
▁infant	-11.2862
mg	-11.2864
▁intelligent	-11.2864
▁authorization	-11.2867
▁majority	-11.2869
db	-11.2873
▁turned	-11.2874
▁films	-11.2875
axis	-11.2878
▁meningitis	-11.2881
▁chemistry	-11.2881
▁GitHub	-11.2881
▁exploration	-11.2882
Your	-11.2882
▁ignore	-11.2883
▁trend	-11.2884
▁expressed	-11.2887
▁pd	-11.2892
▁Query	-11.2892
▁perception	-11.2895
▁bruising	-11.2897
▁dementia	-11.2897
▁Maintain	-11.2897
▁survival	-11.2897
▁animations	-11.2898
▁Blood	-11.2898
show	-11.2909
▁teaspoon	-11.2911
▁understood	-11.2914
▁PowerShell	-11.2914
▁Our	-11.2915
▁committed	-11.2915
▁employment	-11.2915
▁forgot	-11.2916
▁deeper	-11.2916
▁debugger	-11.2929
▁resetting	-11.293
▁regression	-11.293
());	-11.2931
▁braces	-11.2936
group	-11.2937
▁lump	-11.2939
▁pictures	-11.294
▁8,	-11.2941
val	-11.2943
▁cardiac	-11.2946
▁acidosis	-11.2946
▁atom	-11.295
▁precision	-11.295
▁fibrosis	-11.2962
▁lightweight	-11.2962
▁tailored	-11.2963
▁consumers	-11.297
▁expanding	-11.2984
▁Right	-11.2984
filename	-11.2987
first	-11.2989
▁certification	-11.2994
▁Obama	-11.2995
▁suicide	-11.2995
▁Overall	-11.2995
▁bloating	-11.2995
▁Express	-11.2997
▁marked	-11.2997
dict	-11.3003
▁Task	-11.3007
▁discussed	-11.3009
▁palsy	-11.3011
▁begins	-11.3014
▁referr	-11.3015
▁IV	-11.3015
▁King	-11.3022
▁savings	-11.3026
▁speaker	-11.303
▁fly	-11.303
▁gather	-11.303
▁bloodstream	-11.3031
it	-11.3031
▁spasms	-11.3035
▁paying	-11.3036
▁traditions	-11.3044
▁explicitly	-11.3045
▁describes	-11.3047
▁extends	-11.3056
▁similarities	-11.3061
▁passion	-11.3061
▁visualization	-11.3062
▁introduce	-11.3063
▁recurrent	-11.3077
Context	-11.3079
▁naturally	-11.308
▁excel	-11.3083
only	-11.3084
▁subclass	-11.3085
▁End	-11.3087
▁super	-11.3088
▁prior	-11.309
▁nail	-11.3093
▁Potter	-11.3094
▁PostgreSQL	-11.3095
▁Build	-11.3099
▁wave	-11.3107
▁simulate	-11.3107
▁sections	-11.3108
▁knowing	-11.311
▁exit	-11.311
▁carrier	-11.3111
rich	-11.3112
▁represented	-11.3118
▁cancel	-11.3123
▁none	-11.3127
▁approved	-11.3134
ial	-11.314
exe	-11.314
▁extensive	-11.3142
▁rupee	-11.3143
▁Air	-11.3145
▁Harry	-11.315
▁moments	-11.3153
▁institutes	-11.3156
▁resize	-11.3161
▁sufficient	-11.3162
version	-11.3171
__	-11.3171
▁Life	-11.3173
▁periodic	-11.3174
▁phenomenon	-11.3177
▁tabs	-11.3178
▁rice	-11.3178
▁sends	-11.3179
▁enum	-11.3181
▁authority	-11.3194
mon	-11.3195
▁gum	-11.3201
▁hook	-11.3202
▁prop	-11.321
▁Studies	-11.321
▁vibrant	-11.3211
css	-11.3211
▁rewards	-11.3217
▁offset	-11.3219
▁hacking	-11.3221
▁newborns	-11.3222
▁served	-11.3222
▁turning	-11.3225
▁skull	-11.3227
▁division	-11.3229
▁reached	-11.324
▁branches	-11.3247
▁promptly	-11.325
param	-11.3261
▁incredibly	-11.3261
▁markets	-11.3269
target	-11.3279
▁Examples	-11.3281
▁continued	-11.329
▁Magento	-11.3296
ism	-11.3297
▁encounter	-11.3299
▁plus	-11.33
pdf	-11.3301
▁hire	-11.331
▁acupuncture	-11.3312
▁motivation	-11.3313
▁blockers	-11.3314
▁Business	-11.3314
▁Array	-11.3316
▁deploy	-11.3317
▁os	-11.3318
▁deformities	-11.3328
▁spot	-11.3329
▁passport	-11.333
▁2016?	-11.3331
▁bridge	-11.3332
▁pipeline	-11.3333
state	-11.3333
▁IAS	-11.3334
▁feed	-11.334
▁entering	-11.3343
▁suppress	-11.3345
▁agriculture	-11.3346
▁discovered	-11.3347
▁digit	-11.3349
node	-11.3354
▁powers	-11.3354
▁['	-11.3354
▁REST	-11.3356
▁honey	-11.336
▁magnesium	-11.3362
▁unlikely	-11.3363
▁belly	-11.3364
▁feels	-11.3365
▁designs	-11.3378
▁Uber	-11.3379
▁prevalence	-11.3379
▁adverse	-11.3382
▁Sort	-11.3394
▁arrive	-11.3394
▁participating	-11.3397
▁landscape	-11.34
▁conflicting	-11.3406
▁tick	-11.3408
▁Factor	-11.3409
▁blank	-11.3413
chlorothiazide	-11.3414
▁moderation	-11.3414
▁Education	-11.3414
▁blindness	-11.3414
▁philosophy	-11.3414
▁portfolio	-11.3415
00	-11.3415
▁workout	-11.3417
▁hernia	-11.342
▁amino	-11.342
▁mechanism	-11.3433
▁antibiotic	-11.3434
▁cake	-11.3435
▁Indians	-11.3439
▁presidency	-11.3448
▁mixture	-11.345
▁bold	-11.3451
▁folders	-11.3455
▁})	-11.3456
▁naming	-11.3466
▁customization	-11.3468
▁boy	-11.3471
▁Call	-11.3485
▁gear	-11.3487
▁jaw	-11.3488
11	-11.3494
▁Sun	-11.35
▁carries	-11.35
▁East	-11.3501
▁6,	-11.3501
ch	-11.3508
▁LinkedIn	-11.3517
▁sole	-11.3518
▁toggle	-11.3518
`,	-11.3519
▁attach	-11.3522
▁wants	-11.3525
▁Step	-11.3529
▁organisms	-11.3531
▁stenosis	-11.3534
▁carbohydrates	-11.3543
▁wash	-11.3547
▁worse	-11.3548
▁visually	-11.3557
▁ranging	-11.3571
▁London	-11.3572
▁cyst	-11.3588
▁nice	-11.3588
▁Vitamin	-11.3592
▁undergo	-11.3593
▁inline	-11.3593
True	-11.3594
at	-11.3595
▁seeds	-11.3596
▁concatenate	-11.3601
cerebellar	-11.3603
▁huge	-11.3604
reproductive	-11.3606
▁consumed	-11.3615
▁spring	-11.3619
▁agencies	-11.3621
▁insomnia	-11.3621
▁truth	-11.3623
▁obj	-11.3623
▁miles	-11.3634
▁Insulin	-11.3639
▁disabilities	-11.3639
▁crash	-11.3642
▁encourages	-11.3655
▁ibuprofen	-11.3656
▁ovarian	-11.3656
▁dinner	-11.3656
▁sick	-11.3657
bin	-11.3657
▁separated	-11.3661
▁institute	-11.3661
▁units	-11.367
▁"/	-11.3676
▁orange	-11.3677
▁skilled	-11.3679
▁majors	-11.3679
▁repeat	-11.3679
ability	-11.368
▁jar	-11.3681
▁careers	-11.3685
▁St	-11.3687
++.	-11.3688
▁spelling	-11.3695
▁soda	-11.3696
▁restrict	-11.3696
▁bike	-11.3698
▁hate	-11.3699
▁improvements	-11.3701
▁nutritional	-11.3702
▁pills	-11.3716
▁metrics	-11.3719
▁attractions	-11.3721
▁generates	-11.3729
▁Ajax	-11.373
▁voters	-11.373
▁court	-11.3732
▁Star	-11.3735
▁timezone	-11.3739
▁Bollywood	-11.3745
core	-11.3748
▁attraction	-11.375
▁Muslim	-11.3753
items	-11.3753
static	-11.3753
prone	-11.3754
▁Bar	-11.3756
▁lessons	-11.3758
▁spicy	-11.3762
▁LINQ	-11.3762
▁$("	-11.3762
▁Angeles	-11.3764
▁aches	-11.3764
▁emotion	-11.3764
head	-11.3768
▁vaccines	-11.3777
▁lyrics	-11.3779
▁easiest	-11.378
▁rural	-11.378
▁spiritual	-11.378
Control	-11.378
▁allocate	-11.3782
▁polyps	-11.3783
▁cancers	-11.3784
▁containers	-11.3785
▁ListView	-11.3786
▁reporting	-11.3789
▁clicks	-11.3794
▁optimized	-11.3795
▁worst	-11.3797
▁dependent	-11.3798
▁shipping	-11.3798
▁1)	-11.38
▁induce	-11.381
▁atomic	-11.3812
left	-11.3814
▁House	-11.3816
▁lips	-11.3822
▁bites	-11.3826
Taking	-11.3827
▁Mars	-11.383
▁married	-11.3834
▁flavors	-11.3841
▁contributed	-11.3844
st	-11.3847
▁rain	-11.3848
▁protecting	-11.3851
▁radius	-11.3854
▁employers	-11.3862
not	-11.3865
▁uncomfortable	-11.3869
▁Adobe	-11.3869
▁GST	-11.387
▁TABLE	-11.3872
▁Day	-11.3872
yl	-11.3873
▁Their	-11.3874
▁lived	-11.3882
▁Perhaps	-11.3887
▁illnesses	-11.3887
▁100,000	-11.3888
▁Red	-11.3892
▁Italian	-11.3892
▁Vaccine	-11.3893
1"	-11.3894
▁winter	-11.3894
versus	-11.3894
▁limbs	-11.3896
▁recipient	-11.3901
▁Database	-11.3904
▁tablet	-11.3904
▁degeneration	-11.3905
println	-11.3906
▁distress	-11.3909
▁debt	-11.3911
▁administrator	-11.3911
▁jquery	-11.3913
▁tourist	-11.3914
▁mysterious	-11.3922
▁advance	-11.3925
▁Every	-11.3925
▁derived	-11.3927
▁prospects	-11.3927
variable	-11.393
▁spray	-11.3936
▁shot	-11.3936
▁minute	-11.3937
▁factory	-11.3938
▁babies	-11.3941
▁arteries	-11.3941
▁tobacco	-11.3941
▁timing	-11.3948
▁father	-11.3949
▁aims	-11.3952
▁Value	-11.3952
▁personally	-11.3954
▁pronunciation	-11.3959
▁metabolic	-11.3959
driven	-11.396
▁sitting	-11.3963
▁5-	-11.3963
▁screening	-11.3963
▁21	-11.3963
▁birthday	-11.3967
▁musical	-11.3968
▁Fahrenheit	-11.3977
▁horror	-11.3977
▁Objective	-11.398
▁noun	-11.3984
▁Disorder	-11.3984
▁10,	-11.3988
▁internships	-11.3989
init	-11.3992
▁Although	-11.3996
▁sexually	-11.4004
▁manageable	-11.4005
▁genital	-11.4005
▁VB	-11.4006
code	-11.401
▁repetitive	-11.4013
▁Drive	-11.4014
▁massage	-11.4022
sql	-11.403
▁disabled	-11.4031
▁Symfony	-11.4032
▁Co	-11.4035
▁pointers	-11.4038
▁robots	-11.4039
▁appealing	-11.404
▁cautious	-11.4048
▁rank	-11.4048
▁dust	-11.405
▁styling	-11.405
▁controlled	-11.4058
▁gun	-11.406
▁signed	-11.407
▁gaining	-11.4072
▁Online	-11.4074
▁intent	-11.4082
▁Getting	-11.4087
▁generations	-11.4095
▁anger	-11.4095
▁apples	-11.4096
▁limb	-11.4096
▁awards	-11.4102
▁ON	-11.4104
System	-11.4106
▁horizontal	-11.4106
▁Boot	-11.4108
▁!=	-11.4109
▁sarcoma	-11.4109
▁compound	-11.4119
▁antiviral	-11.4123
▁stuck	-11.4123
▁aircraft	-11.4123
▁numeric	-11.4124
▁winning	-11.4125
▁attempts	-11.4128
▁blockage	-11.4133
▁straight	-11.4137
▁resolved	-11.4138
▁prenatal	-11.4139
▁scalp	-11.4141
▁hypothesis	-11.4141
▁manipulation	-11.4141
▁absolutely	-11.4143
▁dance	-11.4143
▁Redis	-11.4144
▁kids	-11.4155
▁Power	-11.4157
▁saliva	-11.4159
▁knew	-11.416
▁forming	-11.4165
▁Hindu	-11.4169
▁river	-11.4171
▁May	-11.4171
▁Francisco	-11.4178
▁consistency	-11.4178
▁Civil	-11.4178
▁velocity	-11.418
▁loan	-11.4188
▁1/2	-11.4192
▁curl	-11.4192
▁Pok	-11.4193
▁props	-11.4194
URL	-11.4195
▁Page	-11.4195
▁Cushing	-11.4196
▁bean	-11.4198
▁pagination	-11.4202
▁Double	-11.4214
▁Jquery	-11.4215
▁lice	-11.4217
gradle	-11.4218
▁antifungal	-11.4223
U	-11.4232
▁introduc	-11.4243
▁pepper	-11.4243
document	-11.4243
▁ranges	-11.4246
down	-11.4246
▁fits	-11.4251
▁docker	-11.4255
▁representing	-11.4258
atic	-11.4269
▁SVG	-11.4272
▁automatic	-11.4273
▁Revolution	-11.4278
▁vertical	-11.4283
▁bundle	-11.4287
▁classified	-11.429
▁cutting	-11.4291
▁ends	-11.4291
▁mail	-11.4293
▁stretch	-11.4293
▁campus	-11.4295
Create	-11.4298
dimensional	-11.4298
run	-11.4301
▁Home	-11.4304
▁curb	-11.4308
▁circular	-11.4309
▁bird	-11.4315
some	-11.4316
▁Organization	-11.4316
▁habit	-11.4317
▁pizza	-11.4318
▁classpath	-11.4319
▁Remember	-11.4328
▁Pandas	-11.4331
img	-11.4333
▁fulfilling	-11.4334
npm	-11.4335
▁discussion	-11.4338
▁norms	-11.4342
▁clothes	-11.4346
▁Blue	-11.4346
▁poison	-11.435
▁floor	-11.4351
▁estimate	-11.4351
▁);	-11.4355
▁charges	-11.4358
▁gap	-11.436
▁surfaces	-11.4363
▁connectivity	-11.4364
▁soap	-11.4365
▁entered	-11.4373
▁counselor	-11.4374
▁electrolyte	-11.4377
▁bite	-11.4381
te	-11.4382
▁hierarchy	-11.4384
min	-11.4384
▁consent	-11.439
▁csv	-11.4397
▁worker	-11.4397
▁succeed	-11.4398
▁pituitary	-11.4402
sudo	-11.4406
▁narrow	-11.4407
▁lip	-11.4409
Manager	-11.4409
▁conjunction	-11.4412
▁serving	-11.4414
▁incoming	-11.4415
▁Leukemia	-11.4421
▁duplicates	-11.4422
▁COVID	-11.4423
▁rapidly	-11.4425
Element	-11.4427
▁angular	-11.4428
▁integrated	-11.4429
osis	-11.4434
Request	-11.4434
message	-11.4437
▁premature	-11.4438
▁breakfast	-11.444
▁numerical	-11.4443
▁sauce	-11.4451
▁aging	-11.4451
▁delimiter	-11.4454
▁engaged	-11.4454
▁Update	-11.4458
▁objective	-11.4459
▁cycling	-11.4459
▁osteoporosis	-11.4459
▁verification	-11.4459
▁TypeScript	-11.4459
▁stopped	-11.4459
▁tenderness	-11.4459
▁Iron	-11.4474
▁Note	-11.4475
Model	-11.4476
▁scheduling	-11.4478
▁prove	-11.4478
▁healthier	-11.4479
▁routing	-11.4482
▁confirmed	-11.4487
▁popup	-11.4489
▁Product	-11.4489
▁limitation	-11.4491
▁authenticate	-11.4493
▁failing	-11.4494
1)	-11.4495
▁cups	-11.4497
▁combining	-11.4497
▁indicating	-11.4497
▁retention	-11.4497
▁courage	-11.4498
▁Digital	-11.45
top	-11.4508
▁declaration	-11.451
▁band	-11.4515
▁rising	-11.4516
▁Western	-11.4517
▁gases	-11.4517
ip	-11.452
SQL	-11.4527
▁rotate	-11.453
▁pick	-11.4532
▁absorb	-11.4533
▁marker	-11.4535
▁malicious	-11.4535
▁submitting	-11.4535
▁certifications	-11.4536
▁battle	-11.4539
▁pseudo	-11.454
false	-11.454
▁largely	-11.4541
▁holes	-11.4541
▁bread	-11.4542
scale	-11.4543
▁Deep	-11.4545
▁answering	-11.4551
▁cancerous	-11.4551
▁researching	-11.4553
▁constraint	-11.4556
box	-11.4559
induced	-11.4559
▁hack	-11.4562
▁calorie	-11.4562
est	-11.4567
lib	-11.457
▁fiction	-11.4573
▁VPN	-11.4576
▁overhead	-11.4578
▁faith	-11.458
▁worry	-11.4581
▁generator	-11.459
▁atresia	-11.4593
▁glaucoma	-11.4593
▁gave	-11.4593
▁tricky	-11.4593
In	-11.4594
▁nursing	-11.4612
▁JPA	-11.4613
▁absence	-11.4614
putting	-11.4615
▁middleware	-11.4616
pip	-11.4622
▁overflow	-11.4622
▁acting	-11.4624
▁requirement	-11.4626
▁ex	-11.4626
▁configuring	-11.4631
▁unauthorized	-11.4632
el	-11.4635
▁corneal	-11.4635
▁OAuth	-11.4636
▁younger	-11.4639
▁kinds	-11.4642
▁fundamental	-11.4643
▁0)	-11.4643
users	-11.4644
▁CAT	-11.4647
▁criminal	-11.4649
▁Medical	-11.4652
▁De	-11.4652
▁tuple	-11.4657
▁artists	-11.4659
▁bowl	-11.4659
▁impacted	-11.4662
▁Command	-11.4666
▁Game	-11.4669
▁aggressive	-11.467
▁centuries	-11.467
import	-11.4675
▁handles	-11.4682
▁purchases	-11.4683
▁myArray	-11.4683
um	-11.4684
▁logged	-11.4688
▁meta	-11.4689
▁plane	-11.4693
▁Program	-11.4695
split	-11.4695
post	-11.4698
off	-11.4701
▁vacation	-11.4703
▁carriers	-11.4706
erebral	-11.4708
▁apnea	-11.4709
▁quit	-11.4723
ist	-11.4727
▁Lord	-11.4727
ssistive	-11.4728
▁potatoes	-11.4728
▁faculty	-11.4729
▁luck	-11.4729
▁printer	-11.473
▁indexes	-11.4734
▁officer	-11.4745
▁WCF	-11.4749
▁dryness	-11.4752
▁Constitution	-11.4756
▁lights	-11.4768
▁machinery	-11.477
over	-11.4772
▁longest	-11.4773
▁gem	-11.4775
▁subtract	-11.4777
Open	-11.4779
▁fossil	-11.4782
▁hallucinations	-11.4787
▁memories	-11.4787
▁stereotypes	-11.4788
▁fungal	-11.4789
root	-11.479
▁cleft	-11.479
let	-11.4796
▁grade	-11.4802
▁finger	-11.4803
▁oven	-11.4805
▁Spotify	-11.4807
▁pharmacy	-11.4807
▁laptops	-11.4808
values	-11.4811
▁32	-11.482
▁completion	-11.4823
▁Jackson	-11.4828
▁Translate	-11.4828
▁bugs	-11.4834
▁weigh	-11.4834
▁IDE	-11.4843
▁spark	-11.4843
▁Muslims	-11.4845
▁dialysis	-11.4846
▁vaccinated	-11.4846
▁MacBook	-11.4846
▁Renal	-11.4846
parse	-11.4849
▁Paris	-11.4849
▁West	-11.4854
▁buildings	-11.4859
▁prescribe	-11.4862
▁reliability	-11.4866
▁moved	-11.4867
▁hurt	-11.4869
▁productive	-11.4869
▁3-	-11.4872
"]	-11.4873
▁quantity	-11.4873
▁compounds	-11.4876
▁neutral	-11.4877
▁vacuum	-11.4878
▁gained	-11.488
▁rhythm	-11.4881
▁calculation	-11.4883
▁ticket	-11.4883
▁DLL	-11.4884
▁relie	-11.4884
▁esophagus	-11.4886
▁appointments	-11.4887
▁alignment	-11.4889
▁suddenly	-11.489
▁manifest	-11.489
▁fans	-11.489
directory	-11.4892
▁dot	-11.4895
▁candy	-11.4897
▁economics	-11.4897
hand	-11.4901
▁robotics	-11.4901
▁circuit	-11.4903
▁sickness	-11.4906
▁titles	-11.4907
▁SSH	-11.4909
▁configurations	-11.491
▁ten	-11.491
▁Un	-11.4919
▁shares	-11.4919
▁olive	-11.4921
▁summarize	-11.4921
▁eligibility	-11.4925
▁incredible	-11.4927
▁Unicode	-11.4928
▁Remove	-11.4936
▁lighting	-11.4947
▁anonymous	-11.4949
▁concerning	-11.4952
trial	-11.4953
▁Before	-11.4954
▁customized	-11.4957
-2	-11.4958
▁DB	-11.4961
▁impairment	-11.4962
▁shouldn	-11.4962
▁niche	-11.4965
ol	-11.4966
▁porn	-11.4966
▁JQuery	-11.4967
dd	-11.4969
▁clock	-11.4969
▁Children	-11.4973
▁MyClass	-11.4974
▁congenita	-11.4984
▁Asian	-11.4987
▁cope	-11.4989
▁im	-11.4996
▁governments	-11.5
▁collaborate	-11.5005
▁rating	-11.5007
▁obstacles	-11.5023
▁Main	-11.5025
▁distinctive	-11.5026
▁pressing	-11.5032
▁hives	-11.5039
▁Were	-11.5041
▁IDs	-11.5044
▁Desert	-11.5045
▁therefore	-11.5049
▁trans	-11.505
▁False	-11.505
custom	-11.5051
▁Library	-11.5057
▁Button	-11.506
▁suited	-11.5061
▁lens	-11.5064
Row	-11.5064
▁furniture	-11.5066
▁Cannot	-11.5068
▁collected	-11.5068
▁OR	-11.5073
▁hotels	-11.5074
▁joke	-11.5083
▁parentheses	-11.5086
▁Setting	-11.5086
▁achievements	-11.5087
▁kernel	-11.5091
▁lazy	-11.5091
▁monitored	-11.5099
▁tablets	-11.5101
▁Understood	-11.5106
▁purchasing	-11.5106
▁passionate	-11.5106
▁speeds	-11.5117
▁backend	-11.5119
point	-11.5123
▁agreement	-11.5124
▁classroom	-11.5124
▁placing	-11.5126
lang	-11.5128
▁indexing	-11.5129
▁passive	-11.513
▁Support	-11.5133
([	-11.5135
▁talked	-11.5137
▁ajax	-11.5139
▁descriptive	-11.5147
▁democracy	-11.5148
▁floating	-11.515
Time	-11.5157
▁meters	-11.5157
▁earthquake	-11.5165
▁Yeah	-11.5167
▁minor	-11.5169
▁plt	-11.5176
right	-11.518
▁serves	-11.518
▁vital	-11.5187
▁dermatitis	-11.5187
▁angina	-11.5188
▁evolution	-11.5188
▁discussions	-11.5196
▁except	-11.52
▁fuels	-11.5205
▁millions	-11.5207
▁allergy	-11.5208
▁informative	-11.5208
▁consideration	-11.5208
▁Hindi	-11.5209
▁HP	-11.521
▁monthly	-11.5216
▁flags	-11.5219
▁IIS	-11.5226
▁bag	-11.5227
▁manufacturer	-11.5227
▁vegan	-11.5228
▁Despite	-11.5228
▁kitchen	-11.5228
▁philosophical	-11.5228
▁football	-11.5228
factor	-11.5237
localhost	-11.5237
▁brought	-11.5249
▁nails	-11.5249
▁Kafka	-11.5249
▁val	-11.5252
▁celebrate	-11.5265
▁targeting	-11.5266
▁scientist	-11.5269
▁src	-11.5275
update	-11.5276
▁inject	-11.5279
▁normally	-11.5281
▁expressing	-11.5282
▁Scala	-11.5283
▁veins	-11.5287
such	-11.5288
▁suit	-11.5289
▁cardiomyopathy	-11.529
▁Safari	-11.5291
▁dollars	-11.5294
each	-11.5298
▁icons	-11.53
▁enjoyed	-11.53
▁encode	-11.5304
▁creatures	-11.5307
ian	-11.5307
▁trait	-11.5311
▁Battle	-11.5311
▁bits	-11.5322
▁prefix	-11.5322
▁charged	-11.5323
▁touching	-11.5325
▁aspirin	-11.5327
▁systemic	-11.5329
▁Integer	-11.5329
▁conducting	-11.533
Settings	-11.5334
▁builder	-11.5335
▁Even	-11.5337
main	-11.5345
build	-11.5347
catch	-11.5352
▁vera	-11.5352
▁integrity	-11.5353
▁considerations	-11.5354
▁pancreas	-11.5356
▁lining	-11.5356
▁possess	-11.5358
▁reflux	-11.5362
▁receives	-11.5368
▁door	-11.5368
++?	-11.5369
▁flour	-11.5373
▁scarring	-11.5373
▁150	-11.5374
▁charging	-11.5375
▁equations	-11.5376
▁January	-11.5377
▁crop	-11.5378
▁optic	-11.5379
Message	-11.5382
▁CLI	-11.5384
▁ending	-11.5385
▁substring	-11.5388
▁await	-11.5392
▁digestion	-11.5394
▁observed	-11.5398
sh	-11.5402
▁diuretics	-11.5405
▁Sydney	-11.5415
▁addictive	-11.5415
▁greenhouse	-11.5415
▁Sea	-11.5415
▁occurrence	-11.5416
▁sale	-11.5423
▁pan	-11.5425
banana	-11.5425
▁mindful	-11.5425
▁watched	-11.5426
▁'/	-11.5432
▁Vaginal	-11.5436
▁unwanted	-11.5436
▁instructed	-11.5436
▁biological	-11.5436
▁spent	-11.5437
▁reminder	-11.5437
▁invasive	-11.5438
▁backgrounds	-11.5444
▁passes	-11.5445
▁nations	-11.5445
png	-11.5447
▁reduces	-11.5454
▁excited	-11.5457
▁transformation	-11.5457
▁HTTPS	-11.5457
▁palate	-11.5459
▁Israel	-11.5468
▁appliances	-11.5472
▁mitigate	-11.5473
▁Column	-11.5475
▁acceleration	-11.5478
▁voting	-11.5478
▁pleasure	-11.5478
▁preventative	-11.5478
▁composed	-11.5479
▁involuntary	-11.5479
▁interviews	-11.5481
▁uploaded	-11.549
▁graduate	-11.5498
▁humor	-11.5498
▁temporarily	-11.5499
▁variations	-11.55
▁fonts	-11.5504
▁threats	-11.5508
▁animate	-11.551
▁Rare	-11.551
▁Middle	-11.5518
▁suspicious	-11.552
▁rehabilitation	-11.552
▁stunning	-11.552
▁Singapore	-11.552
▁falling	-11.553
><	-11.5533
co	-11.5533
▁Multi	-11.5539
▁cameras	-11.5539
sis	-11.5543
▁GROUP	-11.5544
▁pixel	-11.5548
Options	-11.5548
▁retain	-11.5551
▁scripting	-11.5557
▁notify	-11.5562
▁ascending	-11.5564
window	-11.5575
▁oneself	-11.5576
▁applies	-11.5583
▁pancreatic	-11.5583
▁<-	-11.5584
▁sport	-11.5594
Field	-11.5599
▁cv	-11.5601
▁negatively	-11.5603
▁blockchain	-11.5605
▁scoliosis	-11.5605
▁dermatologist	-11.5606
iliary	-11.5613
▁shop	-11.5617
▁accounting	-11.5623
▁OpenGL	-11.5625
▁pancreatitis	-11.5626
Creating	-11.5626
▁strategic	-11.5627
▁Request	-11.5632
▁Media	-11.564
▁fetal	-11.5647
▁housing	-11.5647
▁described	-11.5647
▁massive	-11.5648
venous	-11.5651
▁holds	-11.5651
▁spreadsheet	-11.5652
▁Simple	-11.5652
▁rectangle	-11.5653
▁dystonia	-11.5654
▁sugary	-11.5657
▁compiled	-11.566
search	-11.5661
▁intensity	-11.5662
▁Crohn	-11.5669
▁imperfecta	-11.5669
▁catheter	-11.5672
obj	-11.568
▁requested	-11.568
module	-11.5685
Component	-11.5687
▁throwing	-11.569
▁increment	-11.5691
▁calculating	-11.5691
▁SOAP	-11.5693
display	-11.5696
where	-11.5697
▁sectors	-11.5699
▁owners	-11.5699
▁bus	-11.5709
▁retina	-11.571
▁tight	-11.5711
▁xml	-11.5711
▁tolerance	-11.5713
▁White	-11.5723
CoA	-11.5723
])	-11.5724
▁adequate	-11.5725
template	-11.5728
▁flex	-11.5731
▁technological	-11.5731
▁GDP	-11.5736
▁peripheral	-11.5737
▁ring	-11.5739
▁peak	-11.5741
▁snacks	-11.5744
▁frames	-11.5749
▁45	-11.5754
parathyroidism	-11.5755
▁household	-11.5758
▁sender	-11.576
Q	-11.5762
▁closest	-11.5764
▁addressed	-11.5765
Service	-11.5772
▁INSERT	-11.5776
▁intuitive	-11.5776
▁Party	-11.5777
▁George	-11.5778
▁clarify	-11.5786
▁pump	-11.5789
▁encoded	-11.5795
▁annotations	-11.5801
▁platelet	-11.5802
▁preserve	-11.5804
▁prints	-11.581
▁marijuana	-11.582
▁regimen	-11.5821
▁ethnic	-11.5821
▁href	-11.5832
POST	-11.5833
▁grant	-11.5835
▁wireless	-11.584
▁Netflix	-11.5842
▁Lung	-11.5842
▁sperm	-11.5842
▁attachment	-11.5843
▁physician	-11.5845
▁criticism	-11.5846
▁bottle	-11.5848
▁observe	-11.586
▁sensors	-11.5861
range	-11.5861
▁molecule	-11.5868
▁recording	-11.5868
▁Being	-11.5868
▁0.	-11.5868
▁walls	-11.5869
close	-11.5872
▁handled	-11.5873
ta	-11.5875
▁Office	-11.5876
▁brackets	-11.5877
▁fertility	-11.5885
▁Unix	-11.5886
▁sensory	-11.5888
▁scaling	-11.5888
▁trace	-11.5893
▁textbox	-11.5894
ation	-11.5895
[/	-11.5895
▁posting	-11.5896
default	-11.5906
▁destruction	-11.5907
▁Tumors	-11.5913
▁tutorial	-11.5913
((	-11.5914
▁streams	-11.5915
▁bypass	-11.5917
▁gradient	-11.592
▁outline	-11.592
Count	-11.5928
▁vulnerable	-11.5929
▁glasses	-11.593
▁coping	-11.593
▁inappropriate	-11.594
50	-11.594
▁prominent	-11.5949
▁Insert	-11.595
▁Jewish	-11.5952
▁evil	-11.5955
▁plain	-11.5959
▁defines	-11.5959
cell	-11.5969
▁vinegar	-11.5973
▁substitute	-11.5974
▁reads	-11.5975
▁girlfriend	-11.5978
▁ago	-11.5985
next	-11.5985
ajax	-11.5988
▁rewrite	-11.5988
▁reuse	-11.5992
▁genuine	-11.5994
▁populate	-11.5996
▁Mobile	-11.6
▁===	-11.6001
▁attached	-11.6001
cystic	-11.601
un	-11.6011
▁partition	-11.6013
▁checkboxes	-11.602
▁tries	-11.6022
▁Empire	-11.6023
▁viewers	-11.6024
▁Input	-11.6026
▁arrow	-11.6032
ler	-11.6034
▁Otherwise	-11.604
▁Celsius	-11.604
▁cricket	-11.6044
▁makeup	-11.6048
▁translate	-11.6054
associated	-11.6054
▁admin	-11.6056
addEventListener	-11.6058
▁conservation	-11.6062
▁Show	-11.6062
▁Properties	-11.6062
▁luxury	-11.6063
▁Alfa	-11.6063
▁evolved	-11.6065
sort	-11.607
▁bound	-11.6072
▁Storage	-11.6076
▁Key	-11.6079
▁Love	-11.6081
▁dead	-11.6083
▁browsing	-11.6084
▁navigating	-11.6084
▁adjustments	-11.6085
▁repeated	-11.6085
▁targets	-11.6087
▁isolated	-11.6087
▁entries	-11.609
▁aneurysm	-11.609
▁membrane	-11.6092
▁elections	-11.6093
▁universal	-11.6094
▁acts	-11.6097
▁syllabus	-11.6107
▁Communication	-11.6113
▁garden	-11.6115
▁loans	-11.6118
▁Jane	-11.6118
▁essentially	-11.6119
▁designers	-11.6124
▁susceptible	-11.6129
▁Rectal	-11.6129
▁possibly	-11.613
▁principle	-11.6136
▁equally	-11.6139
link	-11.614
▁inspect	-11.6142
join	-11.6144
▁bile	-11.6146
▁describing	-11.6152
▁Green	-11.6166
▁profit	-11.6166
then	-11.6167
▁readable	-11.6169
▁Essential	-11.6175
▁recipes	-11.6178
▁GATE	-11.6178
▁strive	-11.6181
▁lifting	-11.6186
go	-11.6187
▁authorities	-11.6197
▁disadvantage	-11.62
way	-11.6206
▁acquired	-11.6208
▁ad	-11.621
▁vegetarian	-11.621
▁screens	-11.6211
ViewController	-11.6216
▁loud	-11.6217
▁coconut	-11.6219
▁cirrhosis	-11.622
▁matplotlib	-11.6221
match	-11.6222
▁thorough	-11.6223
▁delivered	-11.6224
▁privileges	-11.6224
▁Tools	-11.6225
▁Greek	-11.6227
▁mid	-11.623
os	-11.6231
▁22	-11.6235
application	-11.6235
▁scratch	-11.6236
▁worried	-11.6242
▁bash	-11.6242
▁characteristic	-11.625
▁convey	-11.6258
▁contacts	-11.6259
▁risky	-11.626
▁designer	-11.626
▁developments	-11.6263
▁Similarly	-11.6265
▁wildlife	-11.6265
▁Analytics	-11.6266
▁fraud	-11.6266
▁internship	-11.6273
▁equals	-11.6276
Range	-11.628
▁Customer	-11.6282
▁Foods	-11.6296
▁employer	-11.6296
▁INR	-11.6298
▁earning	-11.63
▁thousands	-11.6301
▁priorities	-11.631
▁Pune	-11.6311
▁diabetic	-11.6311
▁cooked	-11.6319
▁iPad	-11.632
++,	-11.6323
NSAIDs	-11.6325
▁federal	-11.6329
▁Roman	-11.6331
Index	-11.6331
▁launched	-11.6338
▁lying	-11.6339
▁emulator	-11.6341
Filter	-11.6342
▁pipe	-11.6344
▁soul	-11.6348
▁mention	-11.6351
▁filling	-11.6354
▁Save	-11.6358
▁permanently	-11.636
▁boot	-11.6361
▁chunks	-11.6363
▁rename	-11.6369
▁emphasizes	-11.6373
▁puberty	-11.6379
▁ownership	-11.6379
▁authorized	-11.6382
▁fracture	-11.6383
▁surgeon	-11.6388
▁fan	-11.6396
▁differentiate	-11.6398
▁Virtual	-11.64
▁reflection	-11.6404
▁enzymes	-11.6408
▁markers	-11.6411
▁conclusion	-11.6411
▁tear	-11.6414
▁Russian	-11.6415
action	-11.6421
▁wild	-11.6424
▁slice	-11.6425
▁Number	-11.6425
▁recycling	-11.6425
▁acetaminophen	-11.6426
▁anesthesia	-11.6427
plugin	-11.6429
▁Stage	-11.6429
scope	-11.6431
▁composition	-11.6434
▁GUI	-11.6435
▁relaxing	-11.6443
Query	-11.6443
method	-11.6447
▁Solar	-11.6448
▁widespread	-11.6449
▁investigating	-11.6449
▁capability	-11.6449
▁organizing	-11.6449
▁Advanced	-11.645
▁ports	-11.645
options	-11.6452
▁Perl	-11.6452
active	-11.6453
▁allocated	-11.6456
▁thick	-11.646
▁researched	-11.6461
▁multiply	-11.6463
▁synonyms	-11.647
▁Run	-11.6477
▁offline	-11.6478
▁Adult	-11.6483
Color	-11.6485
▁discover	-11.6489
▁sync	-11.6489
src	-11.649
ui	-11.649
Map	-11.649
▁analytical	-11.6495
service	-11.6495
▁2.0	-11.6496
▁Water	-11.6498
▁embed	-11.6498
▁desert	-11.6505
▁malformation	-11.6505
▁Man	-11.6505
surgical	-11.6514
▁alive	-11.6516
▁Development	-11.6516
▁portal	-11.6518
▁Complex	-11.6519
▁breakdown	-11.6519
▁persuasive	-11.6519
▁activate	-11.6519
▁destroy	-11.6523
▁["	-11.6525
▁Diabetic	-11.6542
dermal	-11.6544
▁horizontally	-11.6544
env	-11.6544
▁distractions	-11.6545
▁2)	-11.6547
▁min	-11.655
save	-11.6552
cat	-11.6553
▁incentives	-11.6555
▁Down	-11.6559
)"	-11.6564
▁pause	-11.6564
Builder	-11.6564
▁Recovery	-11.6565
▁psoriasis	-11.6565
▁copper	-11.6567
▁busy	-11.6569
["	-11.6569
▁electron	-11.658
▁legend	-11.6583
remove	-11.6585
▁vectors	-11.6587
▁neuro	-11.6591
▁caste	-11.6592
▁collections	-11.6596
▁inter	-11.6598
▁relation	-11.6599
▁arts	-11.6602
▁regional	-11.6609
▁lupus	-11.6612
▁memorable	-11.6612
▁hoping	-11.6614
▁descending	-11.6614
▁firm	-11.6621
▁1;	-11.6622
▁spreading	-11.6622
Override	-11.6626
▁definitive	-11.6634
▁deciding	-11.6636
▁Having	-11.6636
▁intestinal	-11.6636
▁biases	-11.6636
▁initialization	-11.6638
▁varying	-11.6642
▁complement	-11.6646
▁inches	-11.6649
={	-11.6652
▁300	-11.6657
▁corporate	-11.666
▁2019	-11.6664
▁RecyclerView	-11.6665
izing	-11.6665
▁guarantee	-11.6666
▁classical	-11.6667
▁heap	-11.6667
▁anchor	-11.6684
▁Society	-11.6684
▁grammatically	-11.6684
▁MIT	-11.669
▁desires	-11.6694
▁400	-11.6698
▁zoom	-11.6701
▁responding	-11.6701
▁loves	-11.6703
▁Connect	-11.6706
▁extracurricular	-11.6707
▁Hadoop	-11.6707
▁rashes	-11.6709
local	-11.6711
▁accumulation	-11.6711
▁recursive	-11.6712
▁attitudes	-11.6714
▁evening	-11.6714
▁experiments	-11.6715
▁assignment	-11.672
▁medicines	-11.6725
rd	-11.673
▁advisable	-11.6731
▁supervision	-11.6731
▁Jesus	-11.6731
▁refreshing	-11.6733
print	-11.6734
▁intervals	-11.6744
▁Video	-11.6744
▁violate	-11.675
frame	-11.6753
▁Gandhi	-11.6756
▁reserved	-11.6757
▁belongs	-11.6759
Collection	-11.676
▁cervical	-11.676
▁cataracts	-11.6763
▁directions	-11.6767
▁Editor	-11.6773
▁entrance	-11.6778
▁prognosis	-11.6778
▁scalability	-11.6778
▁microscope	-11.6778
▁destroyed	-11.678
▁Small	-11.6781
▁appropriately	-11.6783
▁ran	-11.6784
▁milliseconds	-11.6785
▁SET	-11.6788
▁dentist	-11.679
▁kindness	-11.6794
▁undergoing	-11.6795
▁Poly	-11.6801
Edit	-11.6802
▁inflation	-11.6803
▁elevated	-11.6804
▁overdosed	-11.6804
Option	-11.6807
▁2008	-11.681
▁Adding	-11.6812
▁activated	-11.6813
▁lemon	-11.6814
▁Pi	-11.6815
▁fighting	-11.6818
web	-11.6826
▁palpitations	-11.6826
▁nicotine	-11.6827
▁deafness	-11.6831
▁nation	-11.6839
▁Super	-11.6842
▁Auto	-11.6844
▁selects	-11.6845
▁Script	-11.6848
▁minimal	-11.6848
▁occurrences	-11.685
▁hypoplasia	-11.685
▁spinach	-11.6851
▁anime	-11.6851
▁decode	-11.6852
▁Speaking	-11.6853
▁homes	-11.6855
▁anal	-11.6857
▁w	-11.6858
▁encrypted	-11.6862
▁advances	-11.6866
jar	-11.6866
nd	-11.687
▁casting	-11.6883
)`	-11.6883
▁crush	-11.6884
▁switching	-11.6885
Unable	-11.6885
▁sad	-11.6886
▁encrypt	-11.689
>"	-11.6893
▁vulnerabilities	-11.6899
▁2010	-11.6899
▁boyfriend	-11.6903
▁Intel	-11.691
▁artist	-11.6912
▁threat	-11.6912
▁maybe	-11.6912
▁Lee	-11.6918
▁None	-11.6921
▁reload	-11.6921
▁brave	-11.6923
▁Redmi	-11.6923
▁immunosuppressi	-11.6923
▁INTO	-11.6923
▁64	-11.6924
▁vertically	-11.6925
▁appeal	-11.6926
▁certificates	-11.6926
▁fairly	-11.6928
▁published	-11.6929
▁SIM	-11.693
attr	-11.6931
beta	-11.694
▁seven	-11.6946
▁plasma	-11.6947
▁reward	-11.695
▁Tom	-11.695
▁paint	-11.6951
▁len	-11.6952
▁smartphones	-11.6959
▁Math	-11.696
▁sit	-11.6962
▁pitch	-11.6965
▁Through	-11.6968
▁genres	-11.6968
▁controllers	-11.697
▁Doe	-11.6971
▁mystery	-11.6973
▁Cold	-11.6981
▁Olympics	-11.6982
3,	-11.6985
▁mechanics	-11.6993
▁Controller	-11.6995
▁abroad	-11.6996
▁lactose	-11.6996
▁serialization	-11.6999
▁mysqli	-11.7005
▁pressed	-11.7007
▁guitar	-11.701
▁dots	-11.701
ization	-11.7015
▁instruments	-11.7016
▁onset	-11.7017
▁Doctors	-11.702
▁possibilities	-11.7021
▁sustainability	-11.7022
▁salaries	-11.7024
▁prompts	-11.7024
▁PATH	-11.7024
▁association	-11.7037
16	-11.7039
▁supposed	-11.7041
▁exclusive	-11.7045
▁Diclofenac	-11.7045
▁achievable	-11.7045
▁psychology	-11.7046
▁Xamarin	-11.7046
▁uploading	-11.705
▁cardio	-11.7053
position	-11.7054
▁television	-11.7059
▁Wars	-11.7066
▁PM	-11.7071
▁Brain	-11.7071
▁testosterone	-11.7072
▁JDBC	-11.7072
▁slogan	-11.7085
▁encouraging	-11.7095
▁congestion	-11.7095
▁Brazil	-11.7095
▁actor	-11.7096
▁banana	-11.7098
▁Jack	-11.7098
▁Year	-11.7103
▁tablespoons	-11.7105
▁scholarships	-11.7106
▁globally	-11.7111
▁clubs	-11.7111
▁forever	-11.7111
▁nutrient	-11.7113
▁bars	-11.7116
▁faces	-11.7118
▁enforcement	-11.7119
▁steel	-11.7121
▁Natural	-11.7121
▁wife	-11.7122
▁spam	-11.7125
▁colitis	-11.7126
case	-11.7127
▁accepting	-11.7128
▁strike	-11.7129
▁promotions	-11.713
▁mining	-11.7132
▁maximize	-11.7135
▁Exercise	-11.7136
▁expert	-11.7137
container	-11.7142
▁casual	-11.7143
▁diplomatic	-11.7144
▁deposit	-11.7145
▁struggles	-11.7151
▁codes	-11.7158
▁lab	-11.7158
▁linking	-11.7158
▁info	-11.7159
▁edges	-11.716
▁resolutions	-11.7161
▁needing	-11.7161
▁intra	-11.7162
ia	-11.7162
▁Reading	-11.7167
▁Codecademy	-11.7169
▁comprehension	-11.7169
▁submitted	-11.7169
▁tuberculosis	-11.7169
▁verified	-11.7171
▁bumps	-11.7172
▁28	-11.7179
born	-11.718
All	-11.7186
▁precise	-11.7192
Save	-11.7193
react	-11.7195
▁Drinking	-11.7196
▁Spin	-11.7198
▁suffering	-11.7203
▁cystic	-11.7205
▁discovery	-11.7208
▁pure	-11.721
▁Kashmir	-11.7212
▁destinations	-11.7215
▁boys	-11.7215
▁deliver	-11.7221
▁signing	-11.7225
Property	-11.7225
native	-11.7226
▁inspired	-11.7228
▁attitude	-11.7236
▁interpretation	-11.7236
▁highlighting	-11.7238
connect	-11.7238
▁nil	-11.7239
▁Low	-11.7241
▁theoretical	-11.7242
▁Yahoo	-11.7245
▁workbook	-11.7246
▁($	-11.7259
▁Michael	-11.7269
▁basketball	-11.7269
▁fulfillment	-11.727
▁alien	-11.727
▁spontaneously	-11.7271
client	-11.7292
▁supplies	-11.7294
▁acidemia	-11.7295
▁wrote	-11.7297
▁wood	-11.7301
▁$_	-11.7307
▁visited	-11.7308
▁Guide	-11.7309
▁fabric	-11.7315
▁aggregate	-11.7316
▁clarity	-11.732
▁Italy	-11.732
▁suits	-11.7321
▁Options	-11.7321
▁told	-11.7325
▁iconic	-11.7326
▁django	-11.733
ur	-11.7333
▁Action	-11.7338
▁implants	-11.7339
▁rent	-11.7342
▁Hollywood	-11.7345
▁Brainstorm	-11.7345
▁versatile	-11.7345
▁Evaluate	-11.7346
▁retrieved	-11.735
▁placeholder	-11.735
▁hover	-11.7354
It	-11.7365
▁COPD	-11.7365
▁convenience	-11.737
▁uterus	-11.737
▁quiet	-11.7371
▁fastest	-11.7371
▁beverages	-11.7371
▁Street	-11.7374
▁regulation	-11.7391
yyyy	-11.7394
IP	-11.7394
▁clone	-11.7394
▁jump	-11.7394
▁PayPal	-11.7396
▁flushing	-11.7396
▁esophageal	-11.7406
▁clouds	-11.7406
▁sharp	-11.7406
▁copying	-11.741
▁meats	-11.7411
▁Mark	-11.7417
▁retail	-11.7421
▁cooperation	-11.7421
▁median	-11.7421
▁dividing	-11.7421
▁antivirus	-11.7421
▁bigger	-11.7422
▁Master	-11.7422
▁Moon	-11.7424
▁specifications	-11.7426
▁tokens	-11.7428
▁lifetime	-11.7429
▁Software	-11.743
▁turns	-11.7431
▁former	-11.7436
background	-11.7436
▁grep	-11.7438
▁evaluated	-11.7443
Connection	-11.7446
ecause	-11.7447
▁Breast	-11.7447
▁Powershell	-11.7447
▁subset	-11.7448
context	-11.745
▁loads	-11.7452
package	-11.7452
▁col	-11.7453
▁receptor	-11.7466
▁investigate	-11.7468
▁broad	-11.7469
▁combinations	-11.7469
▁Bible	-11.7473
▁NRA	-11.7473
▁denied	-11.7474
▁iodine	-11.7475
onset	-11.7477
▁writers	-11.7479
▁ordered	-11.748
▁secrets	-11.7481
dir	-11.7488
▁ended	-11.7488
▁elbow	-11.7492
▁airway	-11.7493
▁curriculum	-11.7498
▁batteries	-11.7498
▁Delphi	-11.7499
▁pounds	-11.7502
▁COUNT	-11.7503
▁obtained	-11.7505
▁administering	-11.7505
Page	-11.7506
stream	-11.7509
1',	-11.7509
▁Within	-11.751
▁bootstrap	-11.7519
▁10,000	-11.7519
▁programmer	-11.7519
2"	-11.7519
▁charts	-11.7521
▁cable	-11.7522
▁Function	-11.7527
▁Always	-11.7528
▁rheumato	-11.7529
▁James	-11.7529
▁insufficiency	-11.7529
▁programmers	-11.753
▁UPDATE	-11.7535
▁isolation	-11.7537
▁wine	-11.7539
▁representative	-11.7544
existing	-11.7544
▁presented	-11.7545
▁worksheet	-11.7548
▁Kubernetes	-11.755
▁google	-11.755
With	-11.7559
▁asp	-11.7559
"/>	-11.756
Click	-11.7563
▁deeply	-11.7564
safe	-11.7565
▁observation	-11.757
App	-11.7571
product	-11.7572
rs	-11.7574
▁irritability	-11.7576
▁outdated	-11.7577
▁accessibility	-11.7577
▁covering	-11.7578
▁spacing	-11.758
▁athletes	-11.758
▁NOT	-11.7587
▁breathe	-11.7588
▁guess	-11.7589
▁securely	-11.7589
▁talent	-11.7594
▁publish	-11.7595
▁allocation	-11.7595
database	-11.7595
▁village	-11.7596
google	-11.7601
▁legitimate	-11.7602
▁retirement	-11.7602
▁Hinduism	-11.7602
▁confused	-11.7602
▁criticized	-11.7603
▁CREATE	-11.7611
></	-11.7615
1:	-11.7616
Properties	-11.7617
▁samples	-11.7622
▁managers	-11.7625
▁vegetable	-11.7626
▁thrive	-11.7628
▁hemolytic	-11.7628
▁tomorrow	-11.7629
▁brings	-11.763
▁Follow	-11.763
▁printf	-11.7635
▁seat	-11.7641
▁`$	-11.765
▁retrieving	-11.7654
▁drainage	-11.7655
3)	-11.7655
▁unfortunately	-11.7655
▁urethra	-11.7658
▁irritants	-11.766
▁Individuals	-11.7661
▁helper	-11.7663
▁slide	-11.7664
▁acidic	-11.7665
▁commas	-11.7669
▁Anti	-11.7673
▁kingdom	-11.7674
auto	-11.7676
▁gums	-11.7679
▁proficiency	-11.768
▁punctuation	-11.7681
▁visualize	-11.7682
efficient	-11.7685
▁combines	-11.7689
UI	-11.7692
Test	-11.7699
▁iteration	-11.7703
▁span	-11.7705
▁Climate	-11.7708
▁comedy	-11.7708
▁printed	-11.771
▁guys	-11.7713
▁clot	-11.772
▁harsh	-11.7731
▁yogurt	-11.7733
▁accountability	-11.7735
base	-11.7738
▁reasoning	-11.774
Application	-11.7742
▁referenced	-11.7747
Size	-11.7751
▁magic	-11.7751
▁seats	-11.7764
▁blogs	-11.7766
▁surprise	-11.7777
▁venture	-11.7779
utosomal	-11.7781
▁Certain	-11.7784
▁whatever	-11.7785
▁segment	-11.7786
▁hypothyroidism	-11.7786
repeat	-11.7786
ma	-11.7787
▁June	-11.7788
▁Dark	-11.7789
▁departments	-11.779
▁asset	-11.779
▁smallest	-11.779
null	-11.7794
▁Bang	-11.7795
▁Force	-11.7797
▁Forms	-11.7802
ase	-11.7803
▁Bill	-11.7804
▁Kingdom	-11.7807
▁pose	-11.7808
▁loose	-11.7809
▁accomplishments	-11.781
▁resulted	-11.7811
▁Mediterranean	-11.7812
▁Turkey	-11.7812
▁saturated	-11.7812
▁examining	-11.7812
▁appreciation	-11.7812
▁mitochondrial	-11.7812
▁TCP	-11.7818
▁flowers	-11.7825
▁Robert	-11.783
▁tomatoes	-11.7839
▁Outline	-11.7839
▁Kotlin	-11.784
de	-11.7842
▁whitespace	-11.7843
▁develops	-11.7843
▁AC	-11.7846
▁accidents	-11.7847
▁wasn	-11.7849
▁bot	-11.7849
▁Law	-11.7851
▁obtaining	-11.7852
▁station	-11.7853
▁Enter	-11.7861
reaches	-11.7865
▁Estrogen	-11.7865
▁Heroku	-11.7865
▁scenes	-11.7868
▁dashboard	-11.787
▁3)	-11.787
▁DC	-11.7871
Input	-11.7877
na	-11.7879
"></	-11.7884
▁chatbot	-11.7889
▁Lenovo	-11.7892
▁paraplegia	-11.7892
▁sepsis	-11.7892
price	-11.7893
▁Making	-11.7894
▁enjoyable	-11.7894
▁Rest	-11.79
▁rewarding	-11.7905
▁VS	-11.7912
▁colleagues	-11.7914
▁protagonist	-11.7915
▁stance	-11.7915
▁Path	-11.7917
▁robust	-11.7918
▁Pain	-11.7919
▁Malignan	-11.7919
▁facility	-11.7919
▁minimizing	-11.7919
▁structural	-11.7919
▁ingested	-11.7919
▁hazardous	-11.792
}"	-11.792
▁frozen	-11.792
javascript	-11.7921
▁appearing	-11.7922
▁DNS	-11.7923
▁CORS	-11.7923
▁collapse	-11.7925
▁duct	-11.7928
▁performs	-11.7933
system	-11.7937
▁checkout	-11.7942
▁inclusion	-11.7946
▁wheezing	-11.7946
▁customizable	-11.7946
▁scanner	-11.7946
▁myList	-11.7949
▁smoothly	-11.7949
▁reasonable	-11.7949
▁Promise	-11.7951
15	-11.7956
▁chip	-11.7957
▁defense	-11.7962
(0,	-11.7964
▁SAP	-11.7966
▁spastic	-11.7972
Style	-11.7973
▁elderly	-11.7973
▁lift	-11.7974
▁urban	-11.7975
▁Car	-11.7987
Select	-11.7991
▁analyzed	-11.7995
▁annual	-11.7999
▁reminders	-11.7999
ie	-11.8
▁arithmetic	-11.8
▁Congress	-11.8
▁idiopathic	-11.8
▁designated	-11.8001
▁Washington	-11.8001
▁identification	-11.8001
▁bringing	-11.8003
▁spectrum	-11.8005
▁officers	-11.8007
▁History	-11.8007
effective	-11.801
put	-11.8012
tag	-11.8014
▁conveys	-11.8018
▁Sahara	-11.8022
▁cortisol	-11.8027
▁cartilage	-11.8027
▁Tamil	-11.8027
▁Early	-11.8028
▁willingness	-11.8028
▁tickets	-11.8032
▁aside	-11.8039
▁onclick	-11.8046
port	-11.805
▁Complete	-11.8052
▁Ocean	-11.8052
▁grocery	-11.8054
▁multiplication	-11.8054
▁analogy	-11.8054
▁Spain	-11.8054
▁involvement	-11.8055
customer	-11.8055
▁subquery	-11.8056
push	-11.8056
▁Lambda	-11.8056
▁wounds	-11.8057
▁UV	-11.8064
▁Wilson	-11.8065
block	-11.8065
▁rolling	-11.8068
▁releases	-11.8071
▁juvenile	-11.8081
▁urinating	-11.8081
focal	-11.8082
hour	-11.8083
▁Place	-11.8083
▁bedtime	-11.8083
▁gifts	-11.8083
▁Under	-11.8083
▁indices	-11.8084
char	-11.8086
▁Company	-11.809
▁ggplot	-11.809
▁pro	-11.8093
collection	-11.8095
▁lesions	-11.8096
referred	-11.8102
▁coins	-11.8103
▁realize	-11.8105
▁uninstall	-11.8106
▁premium	-11.8107
▁coast	-11.8108
▁fusion	-11.8109
▁Arrange	-11.8109
▁River	-11.8109
▁Texas	-11.8109
▁Perfect	-11.811
▁Bash	-11.8111
▁continuously	-11.8112
▁Phone	-11.8114
▁Exception	-11.8114
▁lasting	-11.8115
▁boxes	-11.8116
>`	-11.8117
▁SD	-11.8122
▁img	-11.8131
▁PhD	-11.8134
▁malignant	-11.8136
▁911	-11.8137
▁rental	-11.8137
▁garbage	-11.8138
▁toolbar	-11.8142
▁bananas	-11.8147
conf	-11.8156
▁2-3	-11.8158
▁wrist	-11.8162
▁gently	-11.8163
▁curvature	-11.8163
▁separation	-11.8163
▁crashes	-11.8164
▁GRE	-11.8166
▁photography	-11.8166
▁Color	-11.8166
▁pink	-11.8168
▁lowest	-11.8168
▁randomly	-11.8173
plot	-11.8179
Form	-11.8184
▁shadow	-11.8185
On	-11.8187
▁flying	-11.8187
▁synchronization	-11.8191
▁Harvard	-11.8191
▁Predict	-11.8192
mp	-11.82
▁objectives	-11.8202
▁gel	-11.8212
ment	-11.8212
▁tradition	-11.8215
▁freelancing	-11.8219
▁reusable	-11.8219
▁complementary	-11.822
behavioral	-11.8222
▁acceptance	-11.8223
▁matters	-11.8223
▁"<	-11.8224
▁perfectly	-11.8226
▁org	-11.8229
▁Transform	-11.8229
▁correspond	-11.8234
bind	-11.824
▁audiences	-11.824
▁merged	-11.8242
host	-11.8243
il	-11.8244
▁footprint	-11.8245
▁measurement	-11.8247
▁puppy	-11.8247
▁Really	-11.8248
▁Outlook	-11.825
▁Order	-11.8251
▁entrepreneurs	-11.8255
ini	-11.8261
▁construct	-11.8264
▁Authentication	-11.8268
▁tactics	-11.8268
▁needle	-11.8268
▁semi	-11.8273
▁dimension	-11.8273
▁kinase	-11.8274
▁masturbation	-11.8275
▁hiding	-11.8276
Marie	-11.8277
Factory	-11.828
many	-11.8286
ance	-11.8288
▁oils	-11.8291
▁antihistamines	-11.8297
▁Short	-11.8301
▁copyright	-11.8301
▁sinus	-11.8302
▁testicular	-11.8302
▁lawyer	-11.8302
▁drawn	-11.8303
▁impaired	-11.8303
▁percent	-11.8303
▁teamwork	-11.8304
Tooth	-11.8305
▁implements	-11.8309
▁pale	-11.8315
2-	-11.8318
▁Ctrl	-11.8321
▁expose	-11.8325
▁EU	-11.833
▁Charcot	-11.833
▁ourselves	-11.833
▁Valley	-11.833
▁overwhelmed	-11.833
ize	-11.8331
▁puzzle	-11.8331
▁Line	-11.8333
so	-11.8334
▁XPath	-11.8334
▁grades	-11.8337
▁Today	-11.8348
▁Soviet	-11.8358
▁ejaculation	-11.8358
▁upgrading	-11.8358
▁commission	-11.8358
▁sunscreen	-11.8358
▁complication	-11.8359
▁satisfied	-11.8359
▁Boost	-11.8361
▁Korean	-11.8362
▁cleaner	-11.8363
change	-11.8371
▁converter	-11.8373
▁roll	-11.8375
▁OK	-11.8377
▁regulat	-11.8381
▁domestic	-11.8386
▁Hemolytic	-11.8386
▁continuing	-11.8386
▁prevalent	-11.8386
Handler	-11.8387
▁recursion	-11.8387
site	-11.8389
▁fictional	-11.839
▁pivot	-11.839
▁freeze	-11.839
orange	-11.8391
▁alias	-11.8391
▁IN	-11.8392
▁Care	-11.8398
▁proceed	-11.8403
State	-11.8404
util	-11.8406
▁wise	-11.8407
▁hypothetical	-11.8412
▁pack	-11.8413
▁dopamine	-11.8414
▁instability	-11.8414
▁victory	-11.8414
▁beaches	-11.8415
▁UITableView	-11.8416
▁immunoglobulin	-11.8421
▁professor	-11.8424
▁[]	-11.8428
▁promises	-11.8428
▁adjusted	-11.8438
▁statistical	-11.8441
Window	-11.8442
▁estrogen	-11.8442
▁celebrities	-11.8442
▁hyperplasia	-11.8443
▁antioxidants	-11.8445
▁JSP	-11.8449
▁Max	-11.8449
▁Eh	-11.8451
▁footer	-11.8453
▁landing	-11.8453
▁teenagers	-11.8455
▁${	-11.846
grid	-11.8462
▁collecting	-11.8464
▁Alice	-11.8464
▁pushing	-11.8465
▁Juvenile	-11.8471
▁conspiracy	-11.8471
▁herpes	-11.8471
▁Energy	-11.8473
▁synonym	-11.8473
▁salad	-11.8473
▁injected	-11.8473
▁Imagine	-11.8474
Event	-11.8475
(1,	-11.8479
▁deposits	-11.8481
▁angles	-11.8482
▁crimes	-11.8482
▁deploying	-11.849
▁steroids	-11.8494
▁noticeable	-11.85
Person	-11.8501
▁micro	-11.8502
cranial	-11.8505
▁locked	-11.8507
▁pace	-11.851
▁subprocess	-11.8515
▁Observable	-11.8518
▁Book	-11.8519
▁Goa	-11.8522
▁apt	-11.8524
▁textbooks	-11.8526
▁arteri	-11.8527
▁Base	-11.8527
▁malnutrition	-11.8528
▁leafy	-11.8528
▁disposing	-11.8528
▁stretches	-11.8528
▁citizen	-11.853
▁ankle	-11.853
Width	-11.8532
▁Dear	-11.8532
▁shotguns	-11.8542
▁wake	-11.8545
▁typos	-11.8546
▁threshold	-11.8548
ling	-11.8553
insert	-11.8554
▁nephropathy	-11.8556
▁recognizing	-11.8556
▁YAML	-11.8556
▁Drug	-11.8556
He	-11.8558
▁panels	-11.8565
▁workshops	-11.857
lers	-11.8585
▁unhealthy	-11.8585
▁iCloud	-11.8585
▁IntelliJ	-11.8585
▁SharePoint	-11.8586
▁marine	-11.8586
▁overwhelming	-11.8586
▁warmth	-11.8589
depth	-11.859
▁reflects	-11.8593
▁HPV	-11.86
▁firms	-11.86
book	-11.8605
▁Building	-11.8607
▁compromise	-11.8609
▁imagine	-11.861
br	-11.861
▁Material	-11.8614
▁podcasts	-11.8614
▁absorbed	-11.8618
▁Client	-11.8639
▁births	-11.8642
▁Penicillin	-11.8642
▁parathyroid	-11.8642
▁JavaFX	-11.8643
▁Financial	-11.8643
▁2015	-11.8644
ant	-11.8645
▁tired	-11.8646
▁episode	-11.8646
▁elected	-11.8646
▁fasting	-11.865
▁lake	-11.8652
esteem	-11.8655
▁IBM	-11.8655
foo	-11.8668
▁thirst	-11.867
▁Hemophilia	-11.8671
▁Tesla	-11.8671
▁descent	-11.8671
▁hexadecimal	-11.8671
▁granted	-11.8674
▁orbit	-11.8679
▁Delete	-11.8681
▁metals	-11.8687
ls	-11.8688
▁Join	-11.8697
▁lunch	-11.8699
▁inspiring	-11.87
▁hobby	-11.87
▁thus	-11.87
▁compilation	-11.8702
▁migraine	-11.8704
▁deadlines	-11.8704
ccompanied	-11.8705
▁independently	-11.8705
▁driven	-11.8705
▁gray	-11.8706
▁closure	-11.8707
▁init	-11.8707
send	-11.8707
▁evaluat	-11.8714
▁ASCII	-11.8715
▁9,	-11.8717
ra	-11.8726
▁iTunes	-11.8729
▁distant	-11.8729
▁milligrams	-11.8729
▁cyber	-11.8729
▁dressing	-11.873
▁convention	-11.8731
ine	-11.8731
▁customs	-11.8731
▁removes	-11.8732
▁dragon	-11.8737
▁fade	-11.8737
▁Dynamic	-11.874
▁chromosomes	-11.8742
▁labeled	-11.8747
▁performances	-11.875
▁purchased	-11.8755
▁filtered	-11.8755
▁acquire	-11.8756
▁answered	-11.8758
▁communicating	-11.8758
▁Matlab	-11.8758
▁Lymphoma	-11.8759
▁harassment	-11.8759
▁Basic	-11.876
▁compiling	-11.8761
▁pH	-11.8761
▁Hotel	-11.8762
▁wet	-11.8763
▁gloves	-11.8764
▁Range	-11.8766
▁workflow	-11.8766
▁barriers	-11.8773
▁builds	-11.8782
▁XAML	-11.8788
▁biology	-11.8789
▁absent	-11.8791
▁Stay	-11.8793
▁initially	-11.8795
len	-11.8795
▁prediction	-11.8795
▁ES	-11.8798
▁cuts	-11.8811
▁stops	-11.8813
▁agency	-11.8817
▁utilizing	-11.8817
▁bilirubin	-11.8817
▁defective	-11.8818
▁inventory	-11.8818
▁HashMap	-11.8819
▁horizon	-11.8821
▁serialize	-11.8821
▁Pacific	-11.8822
▁Information	-11.8823
▁opacity	-11.8826
▁politicians	-11.8829
▁TextView	-11.8832
▁losses	-11.8832
mail	-11.8841
▁phosphate	-11.8842
▁overload	-11.8844
info	-11.8846
sub	-11.8847
▁Tata	-11.8847
▁tightly	-11.8849
▁lowercase	-11.885
▁basal	-11.885
▁inclusive	-11.8851
▁mirror	-11.8852
vector	-11.8853
▁Answer	-11.8854
▁||	-11.8855
▁carrying	-11.8867
▁Wordpress	-11.8876
▁banned	-11.8877
▁inherits	-11.8879
▁disruption	-11.8881
▁Practice	-11.8882
▁35	-11.8882
▁killed	-11.8882
home	-11.8883
▁grown	-11.8884
▁forced	-11.8886
▁GridView	-11.8887
▁positioning	-11.8888
▁`<	-11.889
▁crack	-11.889
▁respected	-11.8891
▁validator	-11.8891
▁workload	-11.8892
▁Cat	-11.8892
inch	-11.8895
▁DataGridView	-11.8899
▁Active	-11.8904
▁reform	-11.8906
▁incident	-11.8906
▁modeling	-11.8906
▁referencing	-11.8908
▁camping	-11.8909
▁purple	-11.8909
▁perceived	-11.891
▁assessment	-11.8913
▁Hi	-11.8914
▁cached	-11.8915
current	-11.8917
▁Event	-11.8923
▁fixing	-11.8924
▁leak	-11.8926
▁valued	-11.8927
▁sight	-11.8928
▁{}	-11.8933
ne	-11.8933
Client	-11.8933
▁Clindamycin	-11.8935
▁serotonin	-11.8935
▁Hitler	-11.8935
▁bipolar	-11.8935
▁November	-11.8937
▁readability	-11.8938
▁instrument	-11.8939
▁Sarah	-11.894
▁creature	-11.8941
property	-11.8941
▁taught	-11.8942
▁GPA	-11.8943
▁composite	-11.8943
▁converts	-11.8947
▁particle	-11.895
;"	-11.8954
▁Johnson	-11.8965
▁bullosa	-11.8965
▁influential	-11.8965
▁itchy	-11.8965
▁resolving	-11.8967
▁confirmation	-11.8968
▁sensor	-11.8969
▁bought	-11.8969
▁parser	-11.8969
▁serial	-11.8973
▁Nations	-11.8975
▁Marketing	-11.8976
▁grows	-11.8976
▁Activity	-11.8977
▁Le	-11.8981
▁utility	-11.8995
▁Hyderabad	-11.8995
▁requiring	-11.8995
▁amyloidosis	-11.8995
▁cramping	-11.8995
▁MATLAB	-11.8995
▁Grid	-11.8996
▁conjunctivitis	-11.8997
▁compliance	-11.8998
Node	-11.9002
▁GPU	-11.9004
▁drama	-11.9004
▁soup	-11.9006
Format	-11.9007
1>	-11.9008
▁cycles	-11.9012
▁Rh	-11.9016
▁stone	-11.9016
ak	-11.9018
▁interacting	-11.9022
▁Court	-11.9025
▁rejection	-11.9025
▁Magnesium	-11.9025
▁querying	-11.9025
▁festivals	-11.9027
▁tiny	-11.9028
▁locally	-11.9029
▁reservation	-11.9031
▁insect	-11.9032
▁Help	-11.9034
▁beforehand	-11.9034
▁mindset	-11.9042
last	-11.9043
▁humanity	-11.9045
folder	-11.9048
▁alarm	-11.905
arg	-11.905
▁tri	-11.9051
▁alter	-11.9053
"));	-11.9055
numbers	-11.9055
▁Ionic	-11.9056
▁implant	-11.906
▁JWT	-11.906
em	-11.9062
▁neurons	-11.9063
▁evenly	-11.9065
▁remotely	-11.9066
▁urge	-11.9069
attribute	-11.9069
▁borders	-11.907
▁localhost	-11.9073
▁brush	-11.9073
Result	-11.9074
▁:=	-11.9075
▁blend	-11.9075
▁lesson	-11.9076
▁circles	-11.9083
▁processors	-11.9083
▁proverb	-11.9085
Danlos	-11.9085
▁banning	-11.9085
err	-11.9086
delete	-11.9088
▁Point	-11.9089
▁vocal	-11.9092
▁advancement	-11.9092
blue	-11.9093
▁pilot	-11.9094
▁Hair	-11.9096
▁Pick	-11.9102
▁DataTable	-11.9102
▁tricks	-11.9108
▁sand	-11.9111
▁seemed	-11.9113
▁explicit	-11.9113
▁informal	-11.9114
▁Interferon	-11.9115
▁fought	-11.9115
▁glycogen	-11.9115
▁warranty	-11.9115
For	-11.9118
▁army	-11.9119
▁lifespan	-11.9119
MP	-11.9124
span	-11.913
▁Process	-11.9135
Start	-11.9142
▁haiku	-11.9145
▁bulk	-11.9147
▁stinging	-11.915
▁magnitude	-11.9152
nt	-11.9152
Enter	-11.9153
▁ecosystem	-11.9153
▁insertion	-11.9153
▁ORDER	-11.9155
Web	-11.9159
18	-11.9163
▁founded	-11.9167
▁explored	-11.9175
▁excitement	-11.9176
▁vice	-11.9176
▁profitable	-11.9176
Json	-11.9181
▁cube	-11.9182
▁Json	-11.9182
submit	-11.9187
▁68	-11.9187
▁Engine	-11.9187
▁Log	-11.9189
clicking	-11.919
▁ties	-11.9199
DD	-11.9205
▁Alcohol	-11.9205
dll	-11.9206
▁applicable	-11.9206
▁dietitian	-11.9206
▁eczema	-11.9206
▁Physics	-11.9207
▁motivate	-11.921
▁son	-11.921
▁computed	-11.9216
▁danger	-11.9217
▁<=	-11.9218
▁establishing	-11.9219
command	-11.9222
▁applicants	-11.9225
▁{{	-11.9228
tter	-11.9229
▁silver	-11.9236
▁Different	-11.9238
▁Latin	-11.9239
▁connective	-11.924
▁emphasize	-11.9242
▁tooltip	-11.9248
dev	-11.9253
▁foster	-11.9256
▁hiking	-11.9268
▁ventilation	-11.9268
▁advised	-11.9276
▁fixes	-11.9277
▁hosts	-11.9281
pattern	-11.9285
){	-11.9291
▁oranges	-11.9291
▁lasts	-11.9293
▁headphones	-11.9294
▁timely	-11.9297
▁recurring	-11.9298
▁sadness	-11.9299
▁matrices	-11.93
▁predictive	-11.93
▁announced	-11.93
▁pdf	-11.9302
▁toys	-11.9303
▁Live	-11.9304
▁Stack	-11.9307
▁404	-11.9311
▁storm	-11.9312
▁Music	-11.9319
▁ecosystems	-11.9321
▁URI	-11.9322
▁passengers	-11.9327
▁gratitude	-11.9329
▁unpredictable	-11.9329
▁NASA	-11.9329
▁corrupted	-11.9331
▁Programming	-11.9333
munosuppressants	-11.9336
▁Peri	-11.9338
▁eyelid	-11.9339
await	-11.9339
▁weed	-11.9341
datetime	-11.9344
▁mixing	-11.9346
▁screenings	-11.9349
▁bear	-11.9351
▁profiles	-11.9351
▁Thread	-11.9353
▁mismatch	-11.9358
▁throws	-11.9359
powered	-11.9359
▁rectal	-11.936
▁League	-11.936
▁Sublime	-11.936
▁unemployment	-11.936
▁unclear	-11.936
▁England	-11.9362
ies	-11.9362
▁David	-11.9363
▁jokes	-11.9364
▁accountable	-11.937
▁surroundings	-11.937
▁submission	-11.9371
▁onion	-11.9372
▁correlation	-11.9372
▁telling	-11.9373
▁spices	-11.9375
Ctrl	-11.9379
else	-11.9383
▁trick	-11.939
▁Kerala	-11.9391
▁dysostosis	-11.9391
▁insipidus	-11.9391
▁unethical	-11.9391
▁repeatedly	-11.9394
▁releasing	-11.9394
▁aliens	-11.9401
▁Calendar	-11.9401
▁Graph	-11.9402
▁css	-11.9404
▁servlet	-11.9404
▁Christian	-11.9405
▁jumping	-11.9406
▁coordinate	-11.9407
▁forum	-11.9409
▁Beta	-11.9419
▁mucus	-11.9422
▁nucleus	-11.9423
probably	-11.9424
▁Night	-11.9425
▁CMake	-11.9427
▁singing	-11.9428
You	-11.9431
▁Document	-11.9434
▁Mi	-11.9435
▁meantime	-11.9435
▁weights	-11.9435
ri	-11.9436
▁stays	-11.9439
▁PS	-11.9439
13	-11.9444
▁Fragment	-11.9445
▁decades	-11.9449
▁cornea	-11.9453
▁TensorFlow	-11.9454
Command	-11.9454
▁Islamic	-11.9458
▁knowledgeable	-11.9459
intensity	-11.9464
▁suffer	-11.9471
▁workouts	-11.9481
▁]	-11.9482
▁Acetaminophen	-11.9485
▁transferred	-11.9486
▁Writing	-11.9487
▁overweight	-11.9487
Method	-11.949
▁Cerebral	-11.9491
▁club	-11.9498
▁participants	-11.9501
▁Address	-11.9502
tubular	-11.9502
▁blisters	-11.9503
▁snow	-11.9504
cast	-11.9509
▁transplants	-11.9512
▁safer	-11.9514
"))	-11.9515
▁cotton	-11.9516
▁hydration	-11.9516
▁Huntington	-11.9516
▁registry	-11.9519
rinary	-11.952
ucopolysaccharid	-11.9523
LTER	-11.9525
Tech	-11.9525
▁antacids	-11.9525
▁conservative	-11.9527
▁consist	-11.9528
▁HD	-11.953
▁Pre	-11.9531
▁competitors	-11.9531
▁slider	-11.9531
▁lighter	-11.9535
icon	-11.9541
▁encephalopathy	-11.9548
▁Democratic	-11.9548
▁Einstein	-11.9548
Server	-11.9549
▁50,000	-11.9554
▁Her	-11.9556
▁favor	-11.9556
▁conscious	-11.9557
▁agricultural	-11.9559
▁adjective	-11.9563
▁Radiati	-11.9577
▁transmit	-11.9579
▁Ciprofloxacin	-11.958
▁discoloration	-11.958
▁offensive	-11.958
▁corona	-11.958
From	-11.9585
▁island	-11.9585
25	-11.9587
align	-11.9589
▁nginx	-11.9589
▁layouts	-11.959
▁separator	-11.9594
▁Art	-11.9595
▁kit	-11.9605
▁1.5	-11.9605
▁bronchitis	-11.9611
▁husband	-11.9612
▁Inside	-11.9614
▁Alpha	-11.9614
▁utilize	-11.9619
▁authors	-11.9623
▁analyst	-11.9624
▁odor	-11.9627
▁Connection	-11.9628
▁supporters	-11.963
1",	-11.9631
▁thumb	-11.9632
▁distinguish	-11.9633
▁guides	-11.9642
▁summarizing	-11.9643
▁golden	-11.9646
▁Out	-11.9646
▁darkness	-11.9647
▁fourth	-11.9651
▁gym	-11.9657
Response	-11.9658
▁Component	-11.9659
Document	-11.9664
▁rays	-11.9668
▁individually	-11.9673
▁Ketorolac	-11.9675
▁Williams	-11.9686
▁indicator	-11.9689
▁outlet	-11.9697
▁hostname	-11.97
▁deserialize	-11.9701
▁Meta	-11.9704
▁NEET	-11.9707
▁unsure	-11.9707
▁bags	-11.9709
▁Flash	-11.9711
▁preview	-11.9712
▁attracted	-11.9714
▁Navigation	-11.9714
▁anymore	-11.9717
▁farmers	-11.9717
htaccess	-11.9719
properties	-11.9719
▁shaped	-11.972
OK	-11.9724
▁ViewModel	-11.9725
▁0.5	-11.9735
▁Send	-11.9736
▁Cross	-11.9739
▁sneezing	-11.9739
▁gluten	-11.9739
▁undergraduate	-11.974
▁neonatal	-11.974
▁CEO	-11.9741
▁balancing	-11.9742
▁observations	-11.9746
▁cheating	-11.9747
random	-11.9751
▁idiom	-11.9752
▁licensed	-11.9753
▁hex	-11.9753
▁simulation	-11.9753
▁holiday	-11.9755
▁explores	-11.9761
▁puts	-11.9762
copy	-11.9763
▁Index	-11.9766
▁cooling	-11.9767
▁migraines	-11.9767
▁compute	-11.9769
▁bachelor	-11.9772
▁citizenship	-11.9772
▁originated	-11.9773
▁eight	-11.9774
▁Smart	-11.9777
▁partnerships	-11.9784
▁wizard	-11.9784
▁beef	-11.9784
Number	-11.9796
▁pom	-11.9797
▁func	-11.9797
▁shower	-11.9797
▁incidents	-11.9798
▁Part	-11.9802
▁interfering	-11.9804
▁JAR	-11.9804
▁merging	-11.9806
▁volunteer	-11.9806
▁infusion	-11.9818
▁Space	-11.9821
ver	-11.9822
▁reveal	-11.9823
▁connects	-11.9829
▁ankles	-11.9834
▁facilitate	-11.9835
▁Reddit	-11.9836
▁manipulating	-11.9836
▁societies	-11.9836
▁Britain	-11.9836
▁Imaging	-11.9836
▁Elasticsearch	-11.9837
▁PNG	-11.9839
▁Self	-11.9841
▁reactive	-11.9845
▁lies	-11.9848
▁album	-11.9849
▁3.0	-11.9852
Label	-11.986
▁KVPY	-11.9869
▁embarrassing	-11.9869
▁loyal	-11.987
▁Nginx	-11.987
▁ordering	-11.987
▁tutor	-11.9871
▁farming	-11.9875
eonatal	-11.9878
▁km	-11.988
▁diagram	-11.9884
▁listeners	-11.9894
▁o	-11.9894
defined	-11.9897
▁schizophrenia	-11.9902
▁decent	-11.9902
Age	-11.9905
▁solved	-11.9907
▁malware	-11.9908
▁UIView	-11.9911
▁zones	-11.9914
▁Wall	-11.9916
Module	-11.9918
▁pointing	-11.9926
▁learners	-11.9926
▁vanilla	-11.9934
▁indeed	-11.9935
▁Lifestyle	-11.9935
▁defeat	-11.9936
▁Interface	-11.9937
▁wealthy	-11.9938
▁booking	-11.9938
▁Dell	-11.994
sales	-11.9941
▁heads	-11.9942
▁rendered	-11.9944
▁wasting	-11.9945
▁triple	-11.9945
▁tutoring	-11.9946
▁2?	-11.9947
▁outdoors	-11.9948
per	-11.995
▁Grand	-11.9952
▁pie	-11.9952
ocular	-11.9955
▁professors	-11.9956
▁Report	-11.9958
▁browse	-11.9966
lectrocardiogram	-11.9967
▁macOS	-11.9967
▁momentum	-11.9968
▁exhibit	-11.9971
▁anomalies	-11.9972
▁Public	-11.9977
▁Bone	-11.9977
args	-11.9978
Rearrange	-11.9981
▁wire	-11.9982
▁investigation	-11.9983
▁Government	-11.9983
▁insects	-11.9993
process	-11.9997
▁Define	-11.9997
▁arrest	-11.9999
▁thrombosis	-12
▁Configuration	-12.0001
rendra	-12.0002
▁breeze	-12.0002
Function	-12.0005
▁AMD	-12.0007
▁Load	-12.0008
▁webpack	-12.001
▁END	-12.0011
▁WebView	-12.0012
'],	-12.0022
▁regarded	-12.0027
myArray	-12.0027
▁condoms	-12.0028
▁schedules	-12.0031
▁acknowledge	-12.0034
▁Install	-12.0036
▁disasters	-12.0037
▁Bad	-12.0037
▁Touch	-12.004
▁pot	-12.0041
▁distribute	-12.0044
▁Child	-12.0045
▁{"	-12.0046
How	-12.0048
▁satellite	-12.005
▁poly	-12.0055
▁bitmap	-12.0055
▁com	-12.0062
▁64-	-12.0066
▁Fibro	-12.0067
▁durable	-12.0067
▁intimacy	-12.0067
▁hematoma	-12.0067
▁synthetic	-12.0067
▁selectors	-12.0069
▁unlock	-12.007
▁belong	-12.0074
▁reinstall	-12.0075
▁rated	-12.0076
▁compressed	-12.0076
status	-12.0082
▁executive	-12.0083
▁shotgun	-12.0083
▁sensations	-12.0099
▁approval	-12.01
▁mandatory	-12.0101
▁gallstones	-12.0102
▁Mild	-12.0103
▁snack	-12.0106
▁sql	-12.0106
genic	-12.0107
echo	-12.0108
Configuration	-12.0114
▁UTC	-12.0116
▁workaround	-12.0118
▁Intent	-12.0118
▁legally	-12.0119
▁MP	-12.0121
href	-12.0121
▁retailers	-12.0125
▁>=	-12.0125
▁heating	-12.0125
▁sweat	-12.0132
▁taller	-12.0135
▁weird	-12.0135
▁eco	-12.0136
▁cellular	-12.014
▁Focus	-12.014
▁l	-12.0142
NAME	-12.0142
▁RGB	-12.0144
▁diets	-12.0151
▁barrier	-12.0151
▁walked	-12.0151
▁invention	-12.0151
▁sunset	-12.0155
▁-1	-12.0159
▁profits	-12.0162
▁tackle	-12.0162
Url	-12.0164
▁descriptions	-12.0164
▁nutritious	-12.0167
▁emerging	-12.0167
header	-12.0167
▁gl	-12.0168
▁boiling	-12.0175
▁equipped	-12.0177
▁rebuilding	-12.0178
▁evolve	-12.0181
▁fibers	-12.0182
▁bathroom	-12.0184
▁ingredient	-12.0186
▁expecting	-12.0189
She	-12.0194
▁cap	-12.0196
▁perceive	-12.0196
▁afford	-12.0198
▁phenomena	-12.02
▁ginger	-12.02
▁Fentanyl	-12.0201
▁inconvenience	-12.0201
▁unmarried	-12.0201
▁UPSC	-12.0204
▁Package	-12.0204
▁enters	-12.0205
▁bin	-12.0206
ns	-12.0207
▁strengthening	-12.0208
▁bands	-12.0213
30	-12.0213
▁associate	-12.0215
address	-12.0216
▁scholarship	-12.0219
▁res	-12.0224
▁archive	-12.0228
▁args	-12.0231
▁handlers	-12.0233
▁EC	-12.0234
▁amenities	-12.0234
▁Army	-12.0235
▁Tri	-12.0237
▁Apps	-12.0238
▁infectious	-12.0239
▁PAN	-12.0242
▁beer	-12.0244
▁illustrate	-12.0251
▁cutoff	-12.0252
▁Vim	-12.0252
▁Iran	-12.0258
Line	-12.0259
▁Road	-12.0264
▁polite	-12.0266
▁spontaneous	-12.0267
▁Joe	-12.0267
▁(1	-12.0269
▁Chennai	-12.0269
▁racism	-12.027
▁uppercase	-12.0271
▁Mr	-12.0274
▁killing	-12.0276
▁immigrants	-12.0282
▁institution	-12.0284
files	-12.0285
apply	-12.0285
▁neighbor	-12.0288
▁hospitals	-12.0288
▁originally	-12.029
100	-12.0291
▁undo	-12.0293
▁arrives	-12.0298
▁shaping	-12.0302
▁accessories	-12.0303
▁flower	-12.0304
▁asleep	-12.0305
▁angry	-12.0305
▁retinal	-12.0308
By	-12.0308
▁JVM	-12.0308
▁gathering	-12.0311
▁locks	-12.0314
▁11.	-12.0316
which	-12.0318
▁soldiers	-12.0319
▁findings	-12.032
▁advocate	-12.032
▁promotion	-12.0324
▁retrieves	-12.0328
▁unconscious	-12.0334
▁subsequent	-12.0336
▁implies	-12.0337
▁cheaper	-12.0337
▁runny	-12.0337
son	-12.0338
▁initializing	-12.0338
▁playback	-12.0341
▁favorites	-12.0341
▁tie	-12.0342
▁Memory	-12.0344
▁maintained	-12.0345
Int	-12.0354
▁regret	-12.0356
▁inspire	-12.0358
han	-12.0358
▁spider	-12.0359
▁repeating	-12.036
▁Paget	-12.036
▁1-2	-12.0362
▁flash	-12.0365
▁novels	-12.0365
▁rupture	-12.0366
▁lots	-12.0367
▁Property	-12.0368
▁controversy	-12.0371
▁cybersecurity	-12.0371
▁seafood	-12.0371
▁tourism	-12.0371
▁Vietnam	-12.0371
▁opt	-12.0372
▁strongest	-12.0373
▁nitrogen	-12.0374
▁Print	-12.0375
▁viewing	-12.0375
▁bio	-12.0376
▁restricted	-12.0378
▁Photoshop	-12.0383
▁seed	-12.0384
▁sheets	-12.0384
Link	-12.0385
▁Last	-12.0386
▁judgment	-12.0388
▁wellbeing	-12.0389
▁installer	-12.039
ero	-12.0391
▁wildcard	-12.0391
▁litter	-12.0393
▁weekend	-12.0393
admin	-12.0393
▁Mary	-12.0396
▁Resource	-12.0397
Allow	-12.0399
5.	-12.0403
luticasone	-12.0405
▁Fanconi	-12.0405
▁Trisomy	-12.0405
▁Wikipedia	-12.0405
▁uncertainty	-12.0405
▁macular	-12.0405
▁copied	-12.0406
▁blob	-12.0411
▁capturing	-12.0412
▁afterlife	-12.0418
▁died	-12.0419
apache	-12.0421
▁abnormally	-12.0422
▁Panel	-12.0425
▁Ho	-12.0425
Mode	-12.0429
▁Full	-12.043
ized	-12.043
▁shortcuts	-12.0435
▁www	-12.0435
Action	-12.0435
▁wheel	-12.0436
▁logger	-12.0438
▁bath	-12.0439
▁autonomous	-12.0439
▁shallow	-12.044
▁sought	-12.044
▁Egypt	-12.044
▁freezing	-12.0441
▁bounds	-12.0442
▁recursively	-12.0442
▁Up	-12.0442
▁gay	-12.0442
▁Interstitial	-12.0444
▁infantile	-12.0445
▁stain	-12.0446
▁meetings	-12.045
Delete	-12.0452
▁Window	-12.0453
▁searches	-12.0455
Code	-12.0456
sentence	-12.0456
▁enterprise	-12.0459
▁Stone	-12.046
▁swallow	-12.0461
▁captured	-12.0462
▁literal	-12.0464
▁reject	-12.0465
▁Sleep	-12.0469
▁Ovarian	-12.0474
▁proud	-12.0474
▁aloe	-12.0474
▁extraction	-12.0476
▁JSF	-12.0477
▁dependence	-12.0477
▁raising	-12.0478
eurofibromatosis	-12.0478
▁Way	-12.0479
▁Only	-12.0485
screen	-12.0487
▁distances	-12.0487
▁pill	-12.0497
1-	-12.05
▁Account	-12.0504
▁metric	-12.0505
tab	-12.0506
▁yield	-12.0506
▁Chromosome	-12.0509
▁Rheumato	-12.0509
▁unexplained	-12.0509
▁wonderful	-12.051
▁"$	-12.0517
▁mentor	-12.0518
usr	-12.0522
▁Peg	-12.0525
▁echocardiogram	-12.0529
▁streamline	-12.0543
▁fibrillation	-12.0544
▁SBI	-12.0544
▁pollutants	-12.0545
▁determination	-12.0547
▁interpreted	-12.0548
▁serialized	-12.0548
tree	-12.0552
▁celebrated	-12.0552
▁Bay	-12.0552
mysql	-12.0562
▁encouraged	-12.0563
▁fistula	-12.0564
▁conferences	-12.0566
▁drawback	-12.0566
ac	-12.0568
made	-12.0569
▁roots	-12.057
▁dense	-12.0575
▁NuGet	-12.0579
▁lightheadedness	-12.0579
▁groin	-12.0579
▁Fever	-12.058
▁ointments	-12.058
▁Hormone	-12.0583
▁RESTful	-12.0583
▁seizure	-12.0593
▁SHA	-12.0596
Source	-12.0598
▁Philippines	-12.0598
▁journal	-12.0601
▁payload	-12.0607
▁cataract	-12.0607
▁HttpClient	-12.0608
▁divs	-12.061
▁geography	-12.0614
▁segmentation	-12.0614
▁uncommon	-12.0614
▁Noonan	-12.0614
▁acceptable	-12.0615
▁hypoglycemia	-12.0617
font	-12.0618
▁rounds	-12.0618
▁launching	-12.0622
▁FTP	-12.0623
▁Standard	-12.0624
▁donor	-12.0633
timestamp	-12.0633
▁Ne	-12.0634
▁snake	-12.0638
▁Solution	-12.0639
}}	-12.0639
▁imports	-12.0642
▁overlay	-12.0646
▁Copy	-12.0646
▁Companies	-12.0649
▁aluminum	-12.0649
▁personnel	-12.0649
WriteLine	-12.065
make	-12.066
▁Sounds	-12.0662
▁volunteering	-12.0662
▁Watch	-12.0663
▁sudo	-12.0663
▁Eye	-12.0666
▁administrative	-12.0668
▁entrepreneur	-12.0668
▁mammals	-12.0669
▁pride	-12.0671
▁vessel	-12.0677
space	-12.0677
▁burns	-12.0679
me	-12.0684
▁friction	-12.0684
▁hyperthyroidism	-12.0684
▁piano	-12.0684
riasis	-12.0684
▁Lipid	-12.0685
▁resilience	-12.0685
▁teachings	-12.0687
▁legacy	-12.0687
▁counting	-12.0689
▁Lake	-12.0694
▁Series	-12.07
21	-12.0703
▁discount	-12.0707
▁Food	-12.0713
▁corrupt	-12.0718
▁rumors	-12.0719
uterine	-12.072
▁financing	-12.072
▁iterating	-12.072
▁reinforcement	-12.072
▁Users	-12.0723
op	-12.0723
▁lib	-12.0725
▁Bell	-12.0726
('/	-12.0737
DNA	-12.0739
▁TypeError	-12.074
▁tears	-12.0742
▁gods	-12.0743
rows	-12.0748
▁cart	-12.0749
▁arch	-12.075
▁arg	-12.075
▁Canadian	-12.0751
zip	-12.0752
▁peers	-12.0754
▁vagina	-12.0754
]"	-12.0755
ysmal	-12.0755
▁params	-12.0756
▁Tech	-12.0757
▁Regex	-12.0759
▁terrorism	-12.076
▁contractions	-12.0762
Sheet	-12.0764
▁suspected	-12.0773
▁ranking	-12.0774
▁Coron	-12.0775
▁giant	-12.078
▁observable	-12.0783
▁lie	-12.0785
▁Al	-12.0786
▁Free	-12.0787
lock	-12.0787
▁Method	-12.079
▁Marfan	-12.0791
▁controversies	-12.0791
▁exposing	-12.0791
▁Boolean	-12.0793
▁alongside	-12.0794
▁praised	-12.0794
▁sampling	-12.0796
▁1/4	-12.0796
▁glad	-12.0796
▁promotes	-12.0799
▁pen	-12.0799
im	-12.0799
▁thinning	-12.0811
ally	-12.0813
▁violation	-12.0816
▁justify	-12.0818
▁transitions	-12.082
▁apologize	-12.0822
▁obstructi	-12.0826
▁puzzles	-12.0826
▁alternate	-12.0827
▁hemoglobin	-12.0827
▁photosynthesis	-12.0827
▁biopsies	-12.0827
▁distal	-12.0828
▁scraping	-12.083
▁Inc	-12.0831
▁adapted	-12.0834
▁realized	-12.0834
fetch	-12.0846
▁accident	-12.0849
▁fault	-12.085
▁Timer	-12.0851
▁gesture	-12.0853
Listener	-12.0855
▁openly	-12.0857
▁ISO	-12.0857
▁Meningitis	-12.0863
▁chess	-12.0863
▁yeast	-12.0863
▁recruitment	-12.0863
▁splitting	-12.0863
▁Ingredients	-12.0865
▁Department	-12.0867
▁mineral	-12.0871
minute	-12.0871
facial	-12.0873
▁23	-12.0876
[0]	-12.0878
▁resort	-12.0881
querySelector	-12.0881
▁nouns	-12.0884
▁NS	-12.0885
▁collision	-12.0888
▁breakpoint	-12.0889
▁Think	-12.0892
▁contained	-12.0897
▁slight	-12.0898
▁Net	-12.0898
▁Stanford	-12.0899
▁infancy	-12.0899
▁faulty	-12.09
▁sulfate	-12.0901
▁Chemistry	-12.0901
▁dictionaries	-12.0901
▁Mathematics	-12.0904
▁Failure	-12.0907
doc	-12.0908
std	-12.0909
GET	-12.0911
▁HR	-12.0914
▁Target	-12.0914
month	-12.0921
▁intestines	-12.0923
▁Mexican	-12.0926
▁behave	-12.0928
▁somewhere	-12.0933
▁featur	-12.0933
▁deficiencies	-12.0935
▁perhaps	-12.0935
▁rupees	-12.0935
▁compelling	-12.0936
▁Offer	-12.0939
▁shortest	-12.094
▁fox	-12.0942
▁Exchange	-12.0943
▁onClick	-12.0945
▁ethics	-12.0946
angular	-12.0955
▁smile	-12.0956
grade	-12.0959
utf	-12.096
▁animated	-12.0961
▁Consider	-12.0961
▁recall	-12.0962
▁Email	-12.0969
▁electromagnetic	-12.0972
▁tendency	-12.0972
▁accused	-12.0972
▁equity	-12.0974
▁December	-12.0974
▁Queen	-12.0974
▁interior	-12.0976
city	-12.0976
▁visas	-12.098
(){	-12.0984
Basically	-12.0985
▁directives	-12.0989
▁decay	-12.0996
▁microwave	-12.0997
▁remainder	-12.0998
▁hundred	-12.0998
token	-12.1003
▁sugars	-12.1003
▁65	-12.1006
▁perforation	-12.1008
▁Christianity	-12.1008
▁spasticity	-12.1009
▁Mental	-12.101
▁surrounded	-12.101
▁renowned	-12.1015
▁mountains	-12.1015
▁Future	-12.1017
ce	-12.1018
▁racial	-12.1021
▁autocomplete	-12.1022
▁subscribe	-12.1024
green	-12.1028
▁disputes	-12.1029
▁fulfill	-12.1031
▁graphical	-12.1034
▁tremor	-12.1035
▁finds	-12.1039
pi	-12.104
▁CS	-12.104
Access	-12.1041
▁siblings	-12.1042
▁inspiration	-12.1043
▁calculus	-12.1045
▁measurements	-12.1045
▁toxicity	-12.1045
▁predicting	-12.1046
▁gout	-12.1047
▁Third	-12.1048
▁April	-12.1051
▁artifacts	-12.1054
▁Import	-12.1071
▁cmdlet	-12.1071
▁lookup	-12.1072
▁bullet	-12.1074
▁onions	-12.1079
▁Directory	-12.1079
▁widgets	-12.1081
▁cellulitis	-12.1082
▁Northern	-12.1082
▁radioactive	-12.1082
▁TCS	-12.1082
▁preserving	-12.1083
▁poetry	-12.1083
▁elevation	-12.1085
▁soy	-12.1095
▁Things	-12.1096
▁brushing	-12.1096
▁ADHD	-12.1098
▁mosquito	-12.1107
▁definitions	-12.111
JS	-12.1114
▁Christmas	-12.1118
▁menopause	-12.1118
▁CodeIgniter	-12.112
▁agreements	-12.1122
▁versa	-12.1124
▁Milk	-12.1125
▁Thrones	-12.1125
Windows	-12.1127
▁influencers	-12.1129
▁responded	-12.1129
▁dye	-12.1131
▁earned	-12.1134
▁flights	-12.1139
consuming	-12.114
▁Ex	-12.1142
Mutations	-12.1155
▁Nicotine	-12.1155
▁Carbon	-12.1156
▁tropical	-12.116
oom	-12.1161
▁Bob	-12.1161
minded	-12.1163
▁u	-12.1164
▁guests	-12.1164
▁receiver	-12.1166
▁traumatic	-12.1167
Stream	-12.117
▁opioid	-12.1186
▁newly	-12.1187
▁plate	-12.1187
▁habitats	-12.1191
▁elector	-12.1192
Layout	-12.1192
▁shooting	-12.1192
▁crew	-12.1193
▁separating	-12.1193
▁opposition	-12.1193
▁standardized	-12.1193
▁Men	-12.1194
▁Tokyo	-12.1195
▁replication	-12.1196
▁Skin	-12.1196
▁specialists	-12.1198
▁LIKE	-12.12
▁Fire	-12.12
▁critics	-12.1201
ended	-12.1203
Provider	-12.1203
▁emotionally	-12.1209
▁contexts	-12.121
▁subtitles	-12.1213
▁extracting	-12.1214
▁Von	-12.1214
▁LGBTQ	-12.1215
▁clinic	-12.122
▁neuron	-12.1223
ical	-12.1224
▁guest	-12.1226
▁triggering	-12.1229
▁Hill	-12.123
▁Messenger	-12.123
▁incidence	-12.123
▁ovulation	-12.123
▁omega	-12.123
▁deprecated	-12.1231
▁Brexit	-12.1231
▁JUnit	-12.1233
▁js	-12.1237
▁syphilis	-12.1237
session	-12.124
▁Display	-12.1249
▁affairs	-12.1249
watch	-12.1252
MyClass	-12.1253
▁2016.	-12.1255
▁outputs	-12.1255
▁speculate	-12.1257
▁Return	-12.1259
▁terrorist	-12.1259
▁membership	-12.126
▁fraction	-12.1262
▁visuals	-12.1264
▁thoughtful	-12.1266
▁ultimate	-12.1266
▁Ansible	-12.1267
▁galaxies	-12.1267
▁loneliness	-12.1267
▁worn	-12.1267
▁stakeholders	-12.1271
▁Bridge	-12.1275
▁Source	-12.1276
ted	-12.1277
▁molecular	-12.1278
▁Example	-12.128
mann	-12.1283
▁roads	-12.1287
category	-12.129
▁syrup	-12.1295
Info	-12.1297
▁Canvas	-12.1297
▁boards	-12.1298
domain	-12.1305
▁Museum	-12.1305
▁inquiries	-12.1305
▁scaly	-12.1305
▁steady	-12.1305
▁efficacy	-12.1305
▁rough	-12.1306
▁(2	-12.1307
▁curly	-12.1308
▁RBI	-12.1308
▁donate	-12.1308
▁SUM	-12.1308
▁Chicago	-12.1309
▁Arabic	-12.1309
▁Five	-12.1311
▁intercept	-12.1312
▁Link	-12.1312
et	-12.1317
▁wrapper	-12.1318
Product	-12.1319
la	-12.1321
Entity	-12.1326
esophageal	-12.1328
▁tourists	-12.1329
▁rebuild	-12.1332
▁landmarks	-12.1335
▁pasta	-12.1338
▁voter	-12.1339
▁enlargement	-12.1343
▁storytelling	-12.1343
▁endangered	-12.1343
▁Gatsby	-12.1343
▁UNION	-12.1344
▁ions	-12.1345
▁chips	-12.1346
▁Tree	-12.135
▁Potassium	-12.1353
▁visits	-12.1354
▁Students	-12.1354
component	-12.1359
▁verbal	-12.1361
▁5]	-12.1363
500	-12.1364
▁grouping	-12.1365
▁reviewing	-12.1366
▁Ball	-12.1368
▁IF	-12.1371
▁4)	-12.1375
▁investor	-12.1377
▁dollar	-12.1378
▁elephant	-12.1378
▁Ask	-12.1379
▁exacerbate	-12.138
▁Ni	-12.138
▁Raspberry	-12.1381
▁bodily	-12.1381
▁duplication	-12.1381
▁polls	-12.1381
▁adopted	-12.1382
▁Yii	-12.1382
▁noting	-12.1383
(1)	-12.1385
▁reflected	-12.1386
▁similarity	-12.1388
▁compete	-12.1388
▁grounds	-12.1389
▁airways	-12.139
▁tail	-12.1391
▁Win	-12.1392
▁breakpoints	-12.1393
▁disappear	-12.1397
▁grams	-12.1398
▁lumps	-12.1404
Copy	-12.1404
center	-12.1405
selector	-12.1407
▁rigorous	-12.1417
▁Steve	-12.1417
▁dyskinesia	-12.1419
▁forehead	-12.1419
▁spacecraft	-12.1419
rin	-12.142
▁expanded	-12.142
▁pi	-12.1421
▁overlapping	-12.1421
▁surefire	-12.1423
▁Family	-12.1427
▁cron	-12.1428
▁wonder	-12.1435
▁Top	-12.1437
▁pour	-12.1443
▁lay	-12.1445
▁cloth	-12.1445
▁shrink	-12.1448
▁incomplete	-12.145
▁boss	-12.145
▁Industrial	-12.145
5,	-12.1452
▁Erythromycin	-12.1457
▁relativity	-12.1457
▁tuition	-12.1457
▁cavity	-12.1457
▁invented	-12.1457
▁MRIs	-12.1458
▁colorful	-12.1458
▁thickness	-12.1459
▁Batman	-12.146
▁king	-12.1462
▁stylesheet	-12.1463
▁polar	-12.1464
▁Row	-12.1466
▁Less	-12.1474
▁Speech	-12.1475
▁outlets	-12.148
▁ship	-12.1484
▁ALL	-12.1485
▁Scientists	-12.1486
▁hemorrhage	-12.1488
▁Chart	-12.1489
▁polygon	-12.1492
▁decorator	-12.1493
▁altitude	-12.1493
▁Nephro	-12.1493
▁unfair	-12.1493
▁doors	-12.1495
▁Chemotherapy	-12.1495
▁qualify	-12.1495
▁periodically	-12.1495
▁heartburn	-12.1496
eroid	-12.1497
▁blind	-12.1498
▁soccer	-12.1498
▁lakhs	-12.1498
▁Eastern	-12.1498
▁erecti	-12.1499
▁Charles	-12.1504
US	-12.151
profit	-12.151
▁2018	-12.1518
▁extracted	-12.1518
alpha	-12.152
▁GM	-12.152
24	-12.1521
con	-12.1521
▁posted	-12.1523
▁Monitor	-12.1524
▁deviation	-12.1526
▁microphone	-12.1526
▁calculator	-12.1529
▁duties	-12.1534
▁Upwork	-12.1534
▁democratic	-12.1534
▁regulatory	-12.1534
▁supplementation	-12.1534
▁rectum	-12.1534
▁'<	-12.1536
▁Yellow	-12.1537
▁Linq	-12.1538
pm	-12.1541
▁tweets	-12.1543
▁carousel	-12.1543
▁publicly	-12.1544
▁greeting	-12.1545
▁corn	-12.1546
▁beat	-12.1558
▁carrots	-12.1559
▁William	-12.156
▁hacker	-12.1567
19	-12.1568
▁tank	-12.1572
▁Nitroglycerin	-12.1572
▁Testosterone	-12.1572
▁celebrity	-12.1572
▁intercourse	-12.1572
▁Phosphate	-12.1572
▁flashes	-12.1573
▁burnout	-12.1573
▁melanoma	-12.1574
▁harmless	-12.1574
sized	-12.1577
using	-12.1581
▁geometry	-12.1582
▁aged	-12.1583
▁Processing	-12.1591
▁QT	-12.1593
void	-12.1596
▁1,000	-12.1597
▁counterfeit	-12.1599
▁allergens	-12.1604
▁narrative	-12.1604
▁Matplotlib	-12.1605
▁initiate	-12.1606
return	-12.1608
▁declar	-12.1609
▁Complications	-12.1611
▁regain	-12.1611
▁supervised	-12.1613
▁abscesses	-12.1613
▁testicles	-12.1613
▁July	-12.1614
▁Doctrine	-12.1614
▁SVN	-12.1615
▁pin	-12.1618
▁UTIs	-12.1633
execute	-12.1636
▁earnings	-12.1637
▁crashing	-12.1637
▁datatable	-12.1638
▁enforce	-12.1639
▁Heat	-12.1645
▁domains	-12.1645
▁conserve	-12.1646
▁encounters	-12.1647
▁Palace	-12.165
▁suicidal	-12.165
▁effusion	-12.165
▁Robin	-12.165
▁decreasing	-12.1651
gen	-12.1651
▁twitching	-12.1651
▁union	-12.1651
▁Typescript	-12.1651
▁asynchronously	-12.1655
▁assert	-12.1658
▁Assign	-12.1659
][	-12.1663
shaped	-12.1669
▁accepts	-12.1672
▁Format	-12.1675
hide	-12.1676
▁5)	-12.1681
▁conventions	-12.1684
▁deadline	-12.1684
keys	-12.1685
▁Hemochromatosis	-12.1689
▁embolism	-12.1689
▁intermediate	-12.1689
▁Thyroid	-12.1689
▁Esophage	-12.1689
▁Prostate	-12.169
▁Postgres	-12.169
▁Apply	-12.1691
▁Session	-12.1693
▁Real	-12.1695
▁Contact	-12.1698
▁sim	-12.1702
▁2012	-12.1705
▁assumptions	-12.1709
mat	-12.1709
fi	-12.1709
▁officials	-12.171
integrating	-12.1711
decode	-12.1714
▁NaN	-12.1716
▁formulas	-12.1716
▁Character	-12.1718
▁demographics	-12.1719
▁temp	-12.1722
project	-12.1722
▁stir	-12.1728
▁Prevention	-12.1728
▁jewelry	-12.1729
▁Plant	-12.173
▁exports	-12.1731
▁Mount	-12.1732
▁talented	-12.1732
▁relaxed	-12.1733
▁progresses	-12.1733
▁strongly	-12.1733
▁Little	-12.1735
▁myFunction	-12.1739
▁viewer	-12.175
▁mole	-12.1751
▁VI	-12.1753
Html	-12.1753
protein	-12.1754
▁liquids	-12.176
▁Fund	-12.1763
▁Ataxia	-12.1768
▁dilation	-12.1768
▁colorectal	-12.1768
▁unlimited	-12.1768
▁childbirth	-12.1768
▁pants	-12.1768
▁dual	-12.1768
▁repositories	-12.177
▁debit	-12.177
▁Hodgkin	-12.1771
▁calming	-12.1772
▁Sheets	-12.1772
▁hackers	-12.1774
pleural	-12.1781
▁aligned	-12.1783
▁textarea	-12.1784
Session	-12.1786
▁TextBox	-12.1786
2:	-12.1787
▁lectures	-12.1803
ignoring	-12.1807
▁Arthritis	-12.1807
▁Dubai	-12.1807
▁automotive	-12.1807
▁detachment	-12.1807
▁resizing	-12.1807
▁crops	-12.1807
Location	-12.1808
▁compresses	-12.1808
▁passions	-12.1809
▁rejected	-12.1809
▁wage	-12.1809
▁Turner	-12.1811
▁duty	-12.1814
▁Batch	-12.1816
▁belonging	-12.1817
▁cues	-12.1818
▁Working	-12.1821
Length	-12.1821
Of	-12.1823
▁greens	-12.1824
▁forests	-12.1825
▁Ha	-12.1826
▁debated	-12.1826
▁appeared	-12.1828
ptr	-12.183
Change	-12.1831
▁captures	-12.1832
▁joined	-12.1833
public	-12.1833
ful	-12.1835
One	-12.1835
▁Engineer	-12.1835
ready	-12.1838
▁punishment	-12.1842
▁swipe	-12.1843
▁disaster	-12.1844
▁Hydrochloride	-12.1847
▁Republic	-12.1847
▁Newton	-12.1847
▁scalable	-12.1848
▁Therapy	-12.1849
▁individualized	-12.1849
▁customizing	-12.1849
▁deployed	-12.1851
etc	-12.1853
▁Side	-12.1853
▁newline	-12.1854
▁api	-12.1855
▁technically	-12.1859
▁era	-12.1859
▁endocrine	-12.1861
float	-12.1864
▁ALS	-12.1864
wrap	-12.1866
▁CO	-12.1869
▁caregivers	-12.187
▁recommends	-12.1875
▁wings	-12.1878
▁shoulders	-12.1882
Group	-12.1882
▁margins	-12.1883
▁clustering	-12.1884
▁Buddhism	-12.1887
▁edX	-12.1887
▁fears	-12.1887
▁October	-12.1888
▁WiFi	-12.1889
ref	-12.1892
Do	-12.1892
▁SMS	-12.1894
▁biased	-12.1894
▁tender	-12.1894
entrepreneurship	-12.1894
▁32-	-12.1895
▁wellness	-12.19
hash	-12.1901
▁slot	-12.1902
▁Ar	-12.191
▁tour	-12.1911
unique	-12.1915
▁vascular	-12.1916
▁simplex	-12.1918
▁credits	-12.1923
▁Wear	-12.1924
art	-12.1926
▁salmon	-12.1927
▁Aicardi	-12.1927
▁Supreme	-12.1927
▁warfarin	-12.1927
▁Amendment	-12.1927
▁Brown	-12.1928
▁oldest	-12.1928
▁Fill	-12.193
▁graduation	-12.1931
▁UN	-12.1932
stage	-12.1933
▁Graphics	-12.1933
proliferati	-12.1935
▁graphs	-12.1938
Database	-12.1939
▁comply	-12.194
68	-12.1941
yml	-12.1942
platform	-12.1954
▁Tax	-12.1957
▁showed	-12.1966
▁sandwich	-12.1966
▁ticks	-12.1966
▁Cognitive	-12.1967
▁Kawasaki	-12.1967
▁penalty	-12.1967
▁immersive	-12.1967
▁daughter	-12.1967
▁Li	-12.1967
▁Liver	-12.1968
▁berries	-12.197
▁advocacy	-12.1973
▁dynamics	-12.1973
▁Jews	-12.1974
▁Socket	-12.1976
Rows	-12.1976
fill	-12.1977
▁iterator	-12.1984
Custom	-12.1986
▁la	-12.1988
energy	-12.1995
frac	-12.1998
▁pm	-12.2
▁imbalance	-12.2
▁abortion	-12.2003
▁testicle	-12.2005
▁festival	-12.2005
▁leather	-12.2007
▁credibility	-12.2007
▁suspension	-12.2007
▁48	-12.2007
▁XSLT	-12.2007
ogenesis	-12.2009
auth	-12.2009
▁CPR	-12.2011
▁mistaken	-12.2011
▁JPEG	-12.2015
▁Running	-12.2015
▁boundary	-12.2018
▁rocks	-12.2019
upload	-12.2019
▁assignments	-12.2027
Config	-12.203
▁texts	-12.2033
menu	-12.2034
▁depict	-12.2035
▁Implement	-12.2041
▁reinforce	-12.2044
▁spouse	-12.2044
▁Body	-12.2045
▁variation	-12.2045
▁rubber	-12.2046
▁integral	-12.2046
▁Kill	-12.2047
▁Notepad	-12.2048
▁discoveries	-12.2048
immunodeficiency	-12.2049
▁CBSE	-12.205
▁kilometers	-12.2057
▁Dry	-12.2057
ting	-12.2058
▁SMTP	-12.2061
lo	-12.2061
ca	-12.2064
profile	-12.2073
controller	-12.2075
▁reversed	-12.2077
▁refund	-12.2079
▁assessments	-12.2081
ToString	-12.2081
▁geographic	-12.2085
▁achievement	-12.2088
▁Tinder	-12.2088
▁autism	-12.2088
▁humidity	-12.2088
▁interference	-12.2089
▁Nobel	-12.2089
▁Temple	-12.2092
▁thermal	-12.2092
▁hacked	-12.2092
▁storyline	-12.2094
▁affection	-12.2095
▁Formulate	-12.2099
▁Games	-12.2099
AIDS	-12.21
▁Item	-12.2101
ton	-12.2103
▁torrent	-12.2105
▁cater	-12.2105
Delegate	-12.212
▁Export	-12.212
▁Testing	-12.2122
▁tapeworm	-12.2126
14	-12.2127
▁balloon	-12.2127
▁parasite	-12.2127
▁Tourette	-12.2129
▁anxious	-12.2129
▁unintended	-12.2129
▁picnic	-12.2129
▁validating	-12.2129
▁firing	-12.213
▁Kolkata	-12.2131
▁scales	-12.2134
▁Martin	-12.2134
▁Beach	-12.2135
▁GB	-12.2137
▁rooms	-12.2138
▁dreaming	-12.2139
▁chewing	-12.214
▁authenticated	-12.2145
▁sys	-12.2148
▁publishing	-12.2156
▁Element	-12.2157
▁con	-12.2158
Barr	-12.2159
negative	-12.2159
▁creators	-12.2161
2',	-12.2163
ger	-12.2166
▁plaque	-12.2168
▁civilization	-12.2169
▁Uri	-12.2169
colored	-12.2169
▁orthopedic	-12.217
▁scanning	-12.217
arotid	-12.217
▁grass	-12.2171
▁portable	-12.2173
▁citrus	-12.2173
▁Australian	-12.2173
▁underway	-12.2174
▁3:	-12.2177
▁workspace	-12.2178
cal	-12.218
sensitivity	-12.219
Security	-12.2197
86	-12.2197
purpose	-12.2199
resistant	-12.22
digit	-12.2206
▁meth	-12.2206
▁overlap	-12.2208
▁kg	-12.2208
eutz	-12.2211
koencephalopathy	-12.2211
▁pigmentosa	-12.2211
▁vertigo	-12.2211
▁QuickBooks	-12.2211
▁Int	-12.2212
▁Mitra	-12.2212
▁concurrent	-12.2213
▁decoding	-12.2213
▁vertices	-12.2214
store	-12.2215
▁solves	-12.2217
▁dump	-12.2217
▁advisor	-12.2218
▁Close	-12.2223
topic	-12.2226
▁spirit	-12.2226
▁hosted	-12.2231
metaphyse	-12.2232
▁setTimeout	-12.2239
none	-12.2241
▁wars	-12.2246
▁Cream	-12.2251
▁Protein	-12.2252
▁diploma	-12.2252
▁Dementia	-12.2252
▁deforestation	-12.2252
▁Rome	-12.2253
▁Count	-12.2253
▁Intra	-12.2253
▁transferring	-12.2254
▁Razor	-12.2254
▁Work	-12.2254
▁consecutive	-12.2255
▁Reserve	-12.2255
▁Pokemon	-12.2256
▁shelter	-12.2257
stop	-12.226
▁downloads	-12.2261
▁Systems	-12.2263
▁bills	-12.2264
cutaneous	-12.2269
▁broadcast	-12.2274
risk	-12.2275
▁Stream	-12.2277
▁Card	-12.2278
▁Area	-12.228
▁datepicker	-12.2283
▁tunnel	-12.2283
dog	-12.2286
▁synchronous	-12.2292
▁Enjoy	-12.2294
▁Musk	-12.2294
▁Respiratory	-12.2294
▁Sarcoma	-12.2294
▁fungus	-12.2294
▁sophisticated	-12.2294
▁welfare	-12.2294
▁Norway	-12.2294
▁Prize	-12.2294
▁acquisition	-12.2294
▁zeros	-12.2294
▁overgrowth	-12.2294
▁artwork	-12.2295
▁broader	-12.2295
▁adulthood	-12.2295
▁Box	-12.2296
▁stricter	-12.2296
▁shelf	-12.2297
▁melting	-12.2298
▁Html	-12.23
▁Reverse	-12.23
▁li	-12.2301
Cell	-12.2305
▁disturbances	-12.2306
ti	-12.2306
▁26	-12.2308
▁param	-12.2314
▁Put	-12.232
▁debates	-12.2324
Cannot	-12.2325
▁Clear	-12.2327
▁stated	-12.2329
▁Tower	-12.2335
▁profession	-12.2335
▁crystal	-12.2335
▁displacement	-12.2336
▁compensation	-12.2336
▁Progressive	-12.2336
▁hashtag	-12.2336
▁airport	-12.2337
▁Peripheral	-12.2337
▁Lion	-12.2338
▁needles	-12.2338
▁DataGrid	-12.2341
▁ectopi	-12.2353
▁chrome	-12.2355
Java	-12.2356
▁blockages	-12.2358
chain	-12.2363
End	-12.2367
▁towels	-12.2369
be	-12.2373
▁breeds	-12.2374
▁terminate	-12.2375
▁biodiversity	-12.2377
▁imperative	-12.2377
▁intricate	-12.2377
▁overriding	-12.2377
▁shingles	-12.2377
▁carried	-12.2378
▁castle	-12.2378
▁charity	-12.2378
▁aggregation	-12.2379
▁smoother	-12.2379
▁bedroom	-12.2383
▁hang	-12.2384
▁Hive	-12.2384
▁opioids	-12.2388
▁Team	-12.2391
▁$1	-12.2391
▁ACE	-12.2392
▁strikes	-12.2393
▁opens	-12.2395
▁exceptional	-12.2399
▁Instructions	-12.2402
▁slices	-12.2403
Update	-12.2404
▁recruit	-12.2405
▁Parse	-12.2409
lasting	-12.2409
▁diff	-12.2413
▁Compute	-12.2415
▁negotiate	-12.2416
▁36	-12.2417
▁Practic	-12.2419
▁NumPy	-12.242
▁astrology	-12.242
▁charcoal	-12.242
▁concentrating	-12.242
▁pork	-12.242
▁hashtags	-12.242
▁modular	-12.2421
▁Notebook	-12.2422
▁bubble	-12.2423
▁allegations	-12.2424
▁mod	-12.2424
▁Merge	-12.2428
▁flutter	-12.2429
▁masks	-12.2433
▁variant	-12.2435
ty	-12.2437
Base	-12.2437
▁delivering	-12.2439
▁ichthyosis	-12.2442
▁emit	-12.2442
▁weaken	-12.2449
▁eyelids	-12.2449
▁Dictionary	-12.245
Variable	-12.2451
Jane	-12.2452
after	-12.2458
▁upvotes	-12.2459
▁urgent	-12.246
▁aerobic	-12.2462
▁divisible	-12.2462
▁erosion	-12.2462
▁adoption	-12.2463
mode	-12.2463
▁Hypo	-12.2464
▁Origin	-12.2464
▁LED	-12.2466
▁Location	-12.2467
▁Mountain	-12.2468
▁Grails	-12.2468
▁violent	-12.247
▁arrived	-12.2473
▁plots	-12.2474
▁drives	-12.2475
numeric	-12.2478
▁spin	-12.2484
▁sequences	-12.2486
▁anus	-12.2489
▁exporting	-12.249
▁dangers	-12.2493
docker	-12.2494
Height	-12.2494
long	-12.2496
▁profound	-12.2502
▁"""	-12.2504
▁Hydrocortisone	-12.2504
▁Risk	-12.2505
▁cleared	-12.2505
▁Everyone	-12.251
▁ImageView	-12.2511
▁invoke	-12.2512
▁regards	-12.2513
inc	-12.2513
▁rocket	-12.2513
▁gestures	-12.2518
▁threading	-12.2524
▁listview	-12.2526
▁Device	-12.253
Resource	-12.2531
written	-12.2534
▁enclose	-12.2538
▁matched	-12.2543
▁packets	-12.2543
▁storyboard	-12.2548
▁proposal	-12.2548
Re	-12.2549
▁microcephaly	-12.2551
IO	-12.2551
▁ducts	-12.2551
▁VARCHAR	-12.2553
▁stools	-12.2554
▁corners	-12.2556
▁Oil	-12.2567
▁issued	-12.2569
▁peer	-12.2573
False	-12.258
Header	-12.2581
▁airlines	-12.2581
rb	-12.2587
▁missions	-12.2587
▁tomato	-12.2589
▁Arduino	-12.2589
▁aerospace	-12.2589
▁pinpoint	-12.2589
89	-12.259
▁BeautifulSoup	-12.259
▁rose	-12.259
▁Berlin	-12.259
▁shadows	-12.2591
▁cashless	-12.2591
▁aggression	-12.2591
▁accidental	-12.2591
▁fantasy	-12.2591
▁wedding	-12.2593
▁habitat	-12.2594
▁2.5	-12.2601
ric	-12.2602
▁skincare	-12.2603
▁rankings	-12.2604
▁seriously	-12.2607
▁registering	-12.2607
▁prototype	-12.2608
▁IoT	-12.2609
▁travels	-12.2611
▁verbs	-12.2618
▁lengths	-12.2623
▁Vector	-12.2625
▁Filter	-12.2631
▁durability	-12.2632
▁prolapse	-12.2632
▁vivid	-12.2632
▁folic	-12.2632
▁Propose	-12.2632
▁toothpaste	-12.2632
▁Secretary	-12.2633
▁Keras	-12.2635
▁expires	-12.2636
▁votes	-12.2637
▁2021	-12.2637
▁screenshot	-12.2638
▁oculo	-12.2638
now	-12.2639
▁grouped	-12.2648
▁doc	-12.2649
Can	-12.2657
▁indicators	-12.2658
▁paragraphs	-12.2662
▁surround	-12.2663
▁monetize	-12.2663
▁sin	-12.2665
▁Font	-12.267
▁Nepal	-12.2674
▁Kejriwal	-12.2675
▁wisdom	-12.2675
▁wifi	-12.2675
▁genitalia	-12.2676
▁Triamcinolone	-12.2676
▁tiredness	-12.2676
▁strains	-12.2677
▁Ancient	-12.2677
▁mini	-12.2677
▁miscarriage	-12.2678
▁Verse	-12.2679
▁serializer	-12.2687
bound	-12.2687
▁contamination	-12.2688
▁navbar	-12.2689
land	-12.269
▁scrollbar	-12.2691
▁Light	-12.2693
Box	-12.2694
hover	-12.2696
▁peppers	-12.2696
▁diagrams	-12.2699
bat	-12.2701
▁narrowing	-12.2702
▁shots	-12.2703
▁Mail	-12.2703
▁volumes	-12.2705
▁hashing	-12.2706
▁err	-12.2708
Run	-12.2709
▁Myelo	-12.271
▁breed	-12.2716
▁agitation	-12.2719
▁eBay	-12.2719
▁harmony	-12.2719
▁Omega	-12.2719
▁zinc	-12.2719
▁dancing	-12.2719
▁250	-12.272
▁cosmetic	-12.2722
▁arranged	-12.2722
Close	-12.2722
▁accomplishment	-12.2723
▁toxin	-12.2723
▁packet	-12.2726
▁nosebleeds	-12.2729
▁meanings	-12.273
▁resistant	-12.2731
▁tubes	-12.2732
figuring	-12.274
▁Lo	-12.2742
▁Handle	-12.2743
▁traditionally	-12.2743
▁gadgets	-12.2744
▁Bitmap	-12.2747
▁viewport	-12.2753
radius	-12.2753
author	-12.2754
▁assume	-12.2761
clear	-12.2761
▁alumni	-12.2762
▁frustration	-12.2762
▁surveillance	-12.2762
▁Dropbox	-12.2762
▁subtle	-12.2762
▁varied	-12.2762
▁Exactly	-12.2762
▁blurry	-12.2762
Paraphrase	-12.2763
▁Duolingo	-12.2763
▁County	-12.2763
▁patent	-12.2764
▁burden	-12.2765
▁VALUES	-12.2765
▁Firestore	-12.2765
▁opponent	-12.2766
▁activation	-12.2768
light	-12.2769
▁2021,	-12.2771
▁oceans	-12.2772
▁Review	-12.2772
▁Soft	-12.2781
▁talks	-12.2785
1'	-12.2786
▁steam	-12.2792
checkbox	-12.2797
▁attachments	-12.2798
▁crust	-12.2798
▁attributed	-12.2799
▁protests	-12.2799
▁recycle	-12.28
▁shops	-12.2802
render	-12.2803
▁quantities	-12.2806
▁sunny	-12.2806
▁Researchers	-12.2807
▁wishes	-12.2807
▁Tay	-12.2807
▁Otic	-12.2808
▁historic	-12.2808
tizing	-12.2809
▁inverse	-12.281
▁sponsored	-12.2811
▁accent	-12.2812
▁fate	-12.2813
▁placements	-12.2815
▁historically	-12.2816
▁Environment	-12.2822
Items	-12.2823
01	-12.2827
▁Ad	-12.2828
▁orgasm	-12.283
▁admissions	-12.2836
▁}}	-12.2838
forEach	-12.2841
TLS	-12.2841
language	-12.2841
▁influences	-12.2842
cos	-12.2843
▁digest	-12.2849
▁resist	-12.2849
▁heritage	-12.285
▁nevus	-12.285
▁centered	-12.285
▁scary	-12.2851
▁broccoli	-12.2851
▁parasites	-12.2851
▁constants	-12.2852
▁Fibonacci	-12.2854
▁latency	-12.2854
▁peanut	-12.2855
▁cement	-12.2856
2",	-12.2857
▁shake	-12.286
▁clinics	-12.286
ngelman	-12.2866
ai	-12.2867
iv	-12.2867
▁milestones	-12.2871
here	-12.2873
▁tailor	-12.2881
World	-12.2882
▁redirecting	-12.289
▁Switzerland	-12.2894
▁XY	-12.2894
▁sickle	-12.2895
▁Ectopi	-12.2895
▁menus	-12.2895
▁Living	-12.2899
▁rounded	-12.29
▁pad	-12.2906
▁tuples	-12.2907
▁curved	-12.2908
▁verifying	-12.2909
misunderstanding	-12.291
▁EF	-12.2911
▁compassion	-12.2913
const	-12.2915
▁environmentally	-12.2918
exec	-12.2921
▁presents	-12.2926
▁battles	-12.2927
▁Jobs	-12.2928
router	-12.2931
▁divorce	-12.2933
▁uncertain	-12.2938
▁fragile	-12.2938
▁Colitis	-12.2938
▁dropped	-12.2938
▁humorous	-12.2939
▁outgoing	-12.2939
▁prison	-12.2941
▁Retro	-12.2943
▁Organic	-12.2948
▁unsigned	-12.2949
▁referral	-12.2951
▁award	-12.2951
▁Binary	-12.2951
▁mothers	-12.2954
drop	-12.2956
]);	-12.2963
▁expresse	-12.2965
▁adopt	-12.2968
ga	-12.2969
▁30,	-12.2969
▁contracting	-12.2971
▁shoot	-12.2972
▁irritate	-12.2978
▁Clean	-12.298
▁Calcium	-12.2982
▁endoscopy	-12.2982
▁ischemia	-12.2982
▁cocaine	-12.2982
▁myeloma	-12.2982
▁Usually	-12.2982
▁valence	-12.2982
▁morality	-12.2983
▁incompatibility	-12.2987
▁incision	-12.2988
▁silent	-12.2988
▁Customers	-12.2988
▁factorial	-12.2992
▁Spino	-12.2992
▁CMS	-12.3002
▁Am	-12.3002
▁codebase	-12.3004
▁Debug	-12.301
▁mentally	-12.3012
▁subscribers	-12.3013
▁photograph	-12.3014
YYYY	-12.3019
▁Proper	-12.3026
▁Lupus	-12.3027
▁Klippel	-12.3027
▁wrapping	-12.3027
▁ISIS	-12.3027
▁literary	-12.3027
martial	-12.3027
▁diaphragm	-12.3028
▁Langer	-12.3028
▁September	-12.3029
▁Repeat	-12.3029
▁altered	-12.303
▁cigarettes	-12.3032
▁SSC	-12.3032
Process	-12.3033
▁decade	-12.3033
▁flip	-12.3033
▁studio	-12.3036
extraterrestrial	-12.3036
▁wins	-12.3037
bdominal	-12.3037
UTF	-12.3037
▁knees	-12.3041
ha	-12.3041
▁awk	-12.3043
ge	-12.3045
eloid	-12.3045
▁ref	-12.3054
▁overly	-12.3058
'].	-12.306
▁administer	-12.306
'".	-12.306
Android	-12.3064
before	-12.3064
▁tattoo	-12.3066
▁Title	-12.3067
▁Job	-12.3069
▁Indonesia	-12.307
▁Syria	-12.3071
▁IIM	-12.3072
▁microdeletion	-12.3072
▁observing	-12.3072
▁strenuous	-12.3072
▁Terminal	-12.3072
▁1990	-12.3073
▁underdeveloped	-12.3073
▁scared	-12.3074
face	-12.3074
login	-12.3074
▁yesterday	-12.3074
▁entropy	-12.3075
▁lightning	-12.3075
▁Rights	-12.3076
▁markup	-12.3076
▁airplane	-12.3078
▁corticosteroid	-12.3079
▁establishment	-12.3081
▁coal	-12.3081
▁genetically	-12.3081
▁March	-12.3082
▁Files	-12.3086
▁sibling	-12.3086
▁Orange	-12.3087
▁licenses	-12.3101
▁120	-12.3101
▁Old	-12.3106
▁bother	-12.311
control	-12.3115
provoking	-12.3117
▁Metronidazole	-12.3117
▁Stephen	-12.3117
▁waking	-12.3117
▁journalism	-12.3117
▁cerebellar	-12.3118
▁retardation	-12.3118
▁gauge	-12.3118
▁locking	-12.3119
▁strip	-12.3119
API	-12.312
edge	-12.3122
▁shade	-12.3126
▁explanations	-12.3126
▁deck	-12.3127
▁DELETE	-12.3127
▁observer	-12.3129
▁imagery	-12.313
▁py	-12.3133
Output	-12.3134
▁parks	-12.3134
▁lesser	-12.3134
▁ghosts	-12.3138
▁secured	-12.3139
▁seasons	-12.3145
▁chew	-12.3147
▁Hello	-12.315
▁Gold	-12.3154
logy	-12.3155
Go	-12.3157
▁educate	-12.3159
▁Plan	-12.316
▁Ember	-12.3162
▁Encephalitis	-12.3162
▁Saudi	-12.3162
▁unstable	-12.3162
▁Ewing	-12.3162
▁Realme	-12.3163
▁Florida	-12.3164
built	-12.3164
▁infinity	-12.3166
▁Understanding	-12.3167
▁Chlamydia	-12.3168
can	-12.317
'])	-12.317
▁cloudy	-12.3171
We	-12.3178
▁Builder	-12.318
▁relational	-12.3181
▁Market	-12.3184
▁Pay	-12.3186
▁catching	-12.3187
▁raises	-12.3189
▁modes	-12.319
45	-12.3194
▁guided	-12.3194
▁eliminat	-12.3197
▁algebra	-12.3199
aldosteronism	-12.3199
orphan	-12.32
(['	-12.3203
▁hierarchical	-12.3208
▁territory	-12.3208
▁Parathyroid	-12.3208
▁conduction	-12.3208
▁macros	-12.3208
▁augment	-12.3209
▁declarative	-12.3209
▁Friday	-12.3209
▁August	-12.321
▁pub	-12.321
▁honor	-12.3212
▁FDA	-12.3213
▁SA	-12.3214
▁almond	-12.3215
▁transfusion	-12.3216
▁Secondary	-12.3217
)".	-12.3217
▁latitude	-12.3218
▁linker	-12.3218
▁Seek	-12.3219
▁theft	-12.3221
40	-12.3222
▁palm	-12.3223
au	-12.3224
▁mat	-12.3228
▁intersection	-12.3228
▁highlights	-12.323
▁Plugin	-12.3234
▁Humans	-12.3234
▁malformations	-12.3234
Invalid	-12.3239
▁saves	-12.3241
merge	-12.3244
▁revolutionize	-12.3249
▁buyers	-12.3252
▁Spastic	-12.3253
cuspid	-12.3253
▁damaging	-12.3253
▁thyroiditis	-12.3254
▁Biden	-12.3254
xsl	-12.3254
▁commerce	-12.3255
▁aptitude	-12.3256
▁intensive	-12.3256
▁Private	-12.3257
dural	-12.3258
▁catchy	-12.3263
▁chair	-12.3266
▁Enum	-12.3267
second	-12.327
▁broker	-12.3271
▁Turn	-12.3272
▁estimates	-12.3273
▁Neuro	-12.3279
First	-12.3282
▁Assembly	-12.329
▁motors	-12.3299
▁INNER	-12.3299
▁Tacrolimus	-12.3299
▁fantastic	-12.3299
▁soothe	-12.3299
▁VII	-12.33
▁revolutionized	-12.3304
▁Ferr	-12.3306
▁simile	-12.3307
▁adverb	-12.3308
▁revolution	-12.3308
▁organism	-12.3308
▁unity	-12.3311
▁CMV	-12.3312
▁picker	-12.3316
▁officially	-12.3316
▁flows	-12.3317
▁hero	-12.3319
0,	-12.3329
call	-12.3331
▁Rank	-12.3332
define	-12.3334
board	-12.3334
▁growths	-12.3335
▁Detect	-12.3336
▁grants	-12.3337
▁stabilize	-12.3339
disabled	-12.3343
▁Cup	-12.3343
▁Along	-12.3344
esticular	-12.3345
▁Hydroxide	-12.3345
▁ammonia	-12.3345
▁edema	-12.3345
▁occlusion	-12.3345
▁pelvis	-12.3345
▁ingestion	-12.3345
▁authenticity	-12.3345
▁Cassandra	-12.3346
▁Chorus	-12.3348
▁minimally	-12.3349
Adapter	-12.3349
▁WebDriver	-12.3349
▁honesty	-12.335
▁Divide	-12.3351
▁demanding	-12.3356
▁claimed	-12.3357
altwater	-12.3357
▁poster	-12.3358
▁Nazi	-12.3359
▁ATM	-12.336
▁denomination	-12.3363
▁Platform	-12.3363
▁stimulating	-12.3364
▁routines	-12.3366
checking	-12.3369
▁ssh	-12.3369
[1]	-12.337
▁El	-12.337
▁MD	-12.3371
▁Aspirin	-12.3384
PATH	-12.3384
▁decreases	-12.3386
Values	-12.3386
▁colored	-12.3388
▁gains	-12.339
condition	-12.339
▁Infosys	-12.3391
▁assault	-12.3391
▁backslash	-12.3391
▁Moxifloxacin	-12.3392
▁Pyridoxine	-12.3392
▁penalties	-12.3392
▁proficient	-12.3392
▁terrible	-12.3392
▁gastroenteritis	-12.3392
▁thickened	-12.3392
▁Neural	-12.3393
▁Administration	-12.3393
▁lifecycle	-12.3394
▁Finding	-12.3396
▁airline	-12.3398
▁evolving	-12.34
▁repellent	-12.3401
▁horse	-12.3405
▁accommodations	-12.3405
▁invested	-12.3405
▁Question	-12.3405
▁Local	-12.3409
▁discipline	-12.341
▁PO	-12.3411
▁Island	-12.3412
▁Gobi	-12.3415
▁Animal	-12.3417
▁responds	-12.3418
▁injecting	-12.3418
▁Label	-12.3421
'))	-12.3422
▁Http	-12.3426
▁coin	-12.3426
he	-12.3427
Post	-12.3427
▁coach	-12.3428
Origin	-12.3429
invasive	-12.3431
proxy	-12.3432
▁steroid	-12.3433
▁Serve	-12.3438
▁Benign	-12.3438
▁Hirschsprung	-12.3438
▁gambling	-12.3438
Muscular	-12.3438
▁pediatrician	-12.3438
▁GMAT	-12.3438
▁Electric	-12.3438
▁instant	-12.3438
▁TFS	-12.3439
▁autonomy	-12.3439
▁immutable	-12.344
▁Royal	-12.344
▁diced	-12.3441
▁rinse	-12.3442
▁Dockerfile	-12.3442
▁earthquakes	-12.3442
)`.	-12.3443
▁impression	-12.3444
▁thiamine	-12.3446
▁conn	-12.3446
▁EditText	-12.3447
▁selective	-12.3447
▁vaccination	-12.3448
▁cravings	-12.3448
▁callbacks	-12.345
▁persistence	-12.345
▁deficit	-12.3451
▁AES	-12.3451
▁ORM	-12.3454
▁redirects	-12.3461
▁holidays	-12.3465
▁caring	-12.3466
props	-12.3468
▁ui	-12.3471
▁marry	-12.3473
▁universes	-12.3476
interferon	-12.3479
nuclear	-12.3479
good	-12.3479
▁Benefits	-12.3485
▁Cyclosporine	-12.3485
▁Mockingbird	-12.3485
▁accommodate	-12.3485
▁tachycardia	-12.3485
▁tapping	-12.3485
▁APK	-12.3486
▁IELTS	-12.3486
▁AsyncTask	-12.3486
▁TLS	-12.3494
▁Antibiotics	-12.3494
▁CASE	-12.3495
▁predicate	-12.3501
cs	-12.3502
▁fired	-12.3505
ncreased	-12.3506
▁scams	-12.3509
▁clues	-12.3511
prop	-12.3514
▁arrhythmias	-12.3517
▁schemes	-12.352
terine	-12.3521
▁platelets	-12.3524
▁Keeping	-12.3525
Sachs	-12.3526
positive	-12.3526
1_	-12.3529
▁seamless	-12.353
▁Dog	-12.3531
ituitary	-12.3531
stradiol	-12.3532
▁Collins	-12.3532
▁Ofloxacin	-12.3532
▁devastating	-12.3532
▁confusing	-12.3532
▁relevance	-12.3532
▁gestational	-12.3532
▁scientifically	-12.3532
▁Stress	-12.3535
▁Mechanical	-12.3535
▁Redux	-12.3536
▁Hashimoto	-12.3536
▁boat	-12.3536
▁judge	-12.3538
▁swings	-12.3539
▁liberal	-12.3542
As	-12.3544
▁creator	-12.3545
▁swap	-12.3547
▁robotic	-12.3547
▁overwrite	-12.3547
▁grand	-12.3549
▁sphere	-12.3551
Find	-12.3551
▁GO	-12.3565
▁membranes	-12.3566
▁nodules	-12.3566
Tab	-12.3567
-4	-12.3571
▁"--	-12.3572
cache	-12.3573
▁replicate	-12.3574
▁ion	-12.3576
▁grammatical	-12.3577
▁terrain	-12.3579
▁sightings	-12.3579
▁pollen	-12.3579
▁anomaly	-12.3579
▁ethnicity	-12.3579
▁distorted	-12.3579
▁Crystal	-12.358
▁occasionally	-12.358
▁dilated	-12.358
▁thickening	-12.3581
▁hyperactivity	-12.3581
▁mapped	-12.3582
▁panic	-12.3582
zero	-12.3583
2;	-12.3583
▁24-	-12.3583
▁Positive	-12.3585
▁Layout	-12.359
▁demographic	-12.359
▁uniform	-12.3592
▁ignored	-12.3592
selected	-12.3601
▁Router	-12.3602
▁recorded	-12.3607
multidimensional	-12.3612
▁conform	-12.3616
fiction	-12.362
total	-12.3621
None	-12.3623
Log	-12.3623
▁collaborative	-12.3625
high	-12.3626
▁pediatric	-12.3626
▁Benazepril	-12.3626
▁Severe	-12.3626
▁Fiverr	-12.3626
▁Rett	-12.3627
▁offspring	-12.3627
▁editors	-12.3632
▁selenium	-12.3633
▁migrate	-12.3633
▁synchronized	-12.3635
▁overuse	-12.3636
▁Scanner	-12.3637
▁nipple	-12.3637
▁sister	-12.3637
▁rhyme	-12.3638
▁initiative	-12.3638
▁brother	-12.3638
▁fighter	-12.3644
▁MAX	-12.3645
Order	-12.3645
books	-12.3647
▁Port	-12.3648
▁11,	-12.3648
▁Variables	-12.365
▁Singh	-12.365
▁pronoun	-12.3657
▁colour	-12.3658
▁clusters	-12.3659
Users	-12.3659
▁operates	-12.3659
▁Total	-12.366
Attribute	-12.3662
'),	-12.3664
▁suspects	-12.3666
remote	-12.3669
▁simplifie	-12.3669
(0)	-12.3672
yruvate	-12.3674
▁indigestion	-12.3674
▁maven	-12.3674
▁alright	-12.3674
▁collagen	-12.3674
▁Navy	-12.3674
▁Codeine	-12.3674
▁Reduce	-12.3676
▁Council	-12.3676
▁phosphorus	-12.3676
▁deny	-12.3678
▁Ant	-12.3679
blockers	-12.3679
▁homepage	-12.3679
▁axes	-12.3681
▁segments	-12.3681
export	-12.3681
▁Developmental	-12.3682
Default	-12.3687
HTTP	-12.3689
job	-12.3689
▁examined	-12.3691
▁2014	-12.3691
▁NIT	-12.3694
▁multiplying	-12.3698
owel	-12.3714
acute	-12.3717
▁Fish	-12.3722
▁inhalation	-12.3722
▁viable	-12.3722
▁interpolation	-12.3723
▁Community	-12.3723
▁crowded	-12.3723
▁Back	-12.3726
▁3-4	-12.3726
▁stations	-12.3728
▁chose	-12.3732
▁WebSocket	-12.3733
▁torsion	-12.3739
▁painless	-12.374
ir	-12.3741
▁uninstalling	-12.3743
▁sweats	-12.3745
▁finances	-12.3748
▁Cut	-12.3752
▁sprays	-12.3752
▁musicians	-12.3758
ff	-12.3759
▁Theory	-12.3759
▁ABC	-12.376
XML	-12.3761
xlsx	-12.3765
▁gut	-12.377
▁Alexander	-12.377
▁Greece	-12.377
▁Shingles	-12.377
▁Willebrand	-12.377
▁inadequate	-12.377
▁subdirectories	-12.377
▁Miller	-12.377
▁Jersey	-12.3771
▁Cordova	-12.3774
▁workforce	-12.3775
▁gathered	-12.3776
contains	-12.3776
▁sept	-12.3779
▁incorrectly	-12.3781
▁primitive	-12.3788
bi	-12.3789
▁Article	-12.3789
JSON	-12.3791
▁jet	-12.3794
▁Reports	-12.3796
sys	-12.3797
Build	-12.3801
▁Context	-12.3809
▁Unit	-12.3813
found	-12.3813
▁recharge	-12.3813
required	-12.3818
reliance	-12.3818
▁Flipkart	-12.3818
▁economies	-12.3818
▁literacy	-12.3818
▁tennis	-12.3818
Idiopathic	-12.3818
▁Haskell	-12.3818
▁trustworthy	-12.3818
▁intentionally	-12.3819
▁Golden	-12.3822
▁laugh	-12.3822
▁PDO	-12.3825
▁intentions	-12.3825
▁trunk	-12.3826
▁Loop	-12.3827
▁Password	-12.3829
▁aspiration	-12.3832
▁hybrid	-12.3834
▁pulse	-12.3835
Thread	-12.3837
▁notebook	-12.3837
!");	-12.3837
▁clauses	-12.3839
▁drawer	-12.3839
▁commits	-12.384
flow	-12.3841
▁2013	-12.3847
▁endpoints	-12.3849
▁Prevent	-12.3849
2);	-12.3855
3-	-12.3855
▁da	-12.3855
▁tiles	-12.3859
▁residents	-12.3859
Hodgkin	-12.3863
▁alphabetical	-12.3865
▁collective	-12.3866
▁Dysplasia	-12.3867
▁patience	-12.3867
▁enjoying	-12.3867
▁tape	-12.3867
▁spondylo	-12.3871
▁positioned	-12.3873
▁herself	-12.3873
▁locale	-12.3874
border	-12.3875
▁grab	-12.3876
▁longitude	-12.3876
▁Dragon	-12.3879
▁rounding	-12.3881
▁avocado	-12.3882
▁conditionally	-12.3882
▁keratosis	-12.3882
▁director	-12.3885
steogenesis	-12.3885
itis	-12.3888
ika	-12.3895
▁pointed	-12.3898
▁fragments	-12.3898
▁Networking	-12.3904
▁pod	-12.3905
▁birthmarks	-12.391
▁Menu	-12.3912
▁immense	-12.3914
▁Joomla	-12.3915
▁Thomas	-12.3915
▁rehab	-12.3915
▁taffy	-12.3915
▁galaxy	-12.3917
▁Ritonavir	-12.3917
▁Stroke	-12.3919
▁XMLHttpRequest	-12.3921
▁NSString	-12.3924
▁plates	-12.3927
▁critically	-12.3928
▁rainbow	-12.393
▁revision	-12.3933
▁constructors	-12.3934
▁Times	-12.3937
▁enhanced	-12.3944
uri	-12.3946
play	-12.3947
▁DATE	-12.3952
▁grey	-12.3953
▁criticisms	-12.3956
▁2-	-12.3959
▁shirt	-12.3959
▁Stick	-12.3961
▁rails	-12.3962
▁impair	-12.3963
▁maternal	-12.3963
▁squares	-12.3963
▁Codeigniter	-12.3965
▁Hydromorphone	-12.3965
▁fasciitis	-12.3965
▁fecal	-12.3965
▁diplomacy	-12.3965
▁torque	-12.3965
▁Addison	-12.3965
▁GWT	-12.3966
weight	-12.3967
▁certified	-12.3969
▁lateral	-12.3969
▁dict	-12.3969
▁gallery	-12.397
▁travelers	-12.3972
▁craft	-12.3974
▁Partner	-12.3979
▁cry	-12.398
her	-12.398
▁astronauts	-12.398
▁derivative	-12.3981
▁lotion	-12.3984
▁interviewer	-12.3984
▁formatter	-12.3985
▁rivers	-12.3987
▁tensor	-12.3991
▁presenting	-12.4003
▁deaths	-12.4004
▁Employee	-12.4007
▁Land	-12.4008
▁fs	-12.4008
▁Commission	-12.4011
▁Georgia	-12.4011
▁brittle	-12.4014
▁endurance	-12.4014
▁combustion	-12.4014
▁gallbladder	-12.4014
▁quiz	-12.4014
▁hunger	-12.4014
▁Postman	-12.4014
▁[3,	-12.4016
▁Bull	-12.4019
▁Dart	-12.4019
▁Extract	-12.4022
▁fried	-12.4022
digital	-12.4023
▁autonom	-12.4025
▁warts	-12.4029
lt	-12.4029
▁dropping	-12.4029
▁1.0	-12.4031
▁suite	-12.4033
2?	-12.4035
▁producer	-12.4042
fs	-12.4043
▁sockets	-12.4044
▁rescue	-12.4045
tags	-12.4047
▁parsed	-12.4053
▁Rye	-12.4054
dom	-12.4055
modal	-12.4055
intensive	-12.406
▁embrace	-12.4061
driving	-12.4061
▁Morphine	-12.4063
▁endometrial	-12.4063
▁liking	-12.4063
▁executes	-12.4064
▁rotating	-12.4066
▁manufacturers	-12.4067
▁Chief	-12.4067
▁Mockito	-12.4067
▁lifelong	-12.4067
▁Sorry	-12.4068
▁lime	-12.4069
Script	-12.407
▁nine	-12.4071
▁highlighted	-12.4072
ealand	-12.4074
▁collapsed	-12.4075
led	-12.4076
▁Monday	-12.4076
▁Friend	-12.4079
encode	-12.4083
▁electrolytes	-12.4084
▁nephritis	-12.4085
▁Validation	-12.4087
▁hepatic	-12.41
▁reply	-12.4106
▁symbolic	-12.4106
(2)	-12.411
▁Rose	-12.4111
▁Acyclovir	-12.4113
▁glycosylation	-12.4113
▁necrosis	-12.4113
▁phototherapy	-12.4113
▁biotin	-12.4113
▁Github	-12.4113
▁Elon	-12.4114
▁firearms	-12.4115
▁IDEA	-12.4116
▁actress	-12.4117
▁watches	-12.4119
emoral	-12.4121
Async	-12.4123
▁angel	-12.4123
26	-12.4124
▁hat	-12.4127
▁plug	-12.4127
▁interpretations	-12.4129
▁knight	-12.4131
▁Republican	-12.4131
ent	-12.4135
▁Login	-12.4139
▁minimized	-12.4142
▁analysts	-12.4144
▁regulated	-12.4146
▁Shift	-12.4147
▁pus	-12.4149
▁unblock	-12.415
▁Driver	-12.4151
▁chains	-12.4155
▁origins	-12.4155
▁Asp	-12.4156
▁sparse	-12.4158
▁Malaysia	-12.416
myDiv	-12.4161
Advanced	-12.4161
sharing	-12.4161
▁shut	-12.4161
paced	-12.4162
▁Bachelor	-12.4162
▁positively	-12.4163
▁Bacitracin	-12.4163
▁Dhoni	-12.4163
▁Graves	-12.4163
▁Timolol	-12.4163
▁cochlea	-12.4164
▁spelled	-12.4165
▁Board	-12.4167
▁Transient	-12.4168
▁intravenously	-12.4169
▁decrypt	-12.4171
▁dissolve	-12.4174
▁magazine	-12.4183
▁complaint	-12.4183
ana	-12.4184
▁sprite	-12.4186
ex	-12.4186
▁openings	-12.419
▁projection	-12.4193
▁thesis	-12.4193
NS	-12.4194
▁conclusions	-12.4194
▁spaced	-12.4196
▁tf	-12.4197
▁mono	-12.4199
▁cheat	-12.42
22	-12.4204
private	-12.4211
Bob	-12.4211
▁JMeter	-12.4213
▁Sumatriptan	-12.4213
▁vasculitis	-12.4213
▁31	-12.4213
▁lipase	-12.4213
▁lonely	-12.4214
▁Thailand	-12.4215
▁inconsistencies	-12.4215
Token	-12.4216
▁leverage	-12.4216
▁exec	-12.4217
▁underline	-12.4217
▁Lua	-12.4217
▁Story	-12.4218
▁sexuality	-12.422
▁ultra	-12.422
▁western	-12.4221
Template	-12.4222
▁20,000	-12.4222
ular	-12.4222
reader	-12.4225
▁contracts	-12.4226
▁allies	-12.4226
▁ranked	-12.4229
▁predicted	-12.423
▁contribution	-12.4231
▁negotiations	-12.4232
▁hazards	-12.4236
Parameter	-12.4238
▁Mes	-12.4238
▁Policy	-12.424
▁10)	-12.424
▁bell	-12.4245
balanced	-12.4246
▁Ca	-12.4248
CT	-12.4249
▁defend	-12.425
▁Dogs	-12.4254
▁3?	-12.4257
Container	-12.4258
focus	-12.4258
▁uncover	-12.4262
36	-12.4262
▁cerebro	-12.4264
▁Bitcoin	-12.4264
▁cinnamon	-12.4264
▁Limb	-12.4264
▁hoarseness	-12.4264
▁inflamed	-12.4264
▁suppression	-12.4264
▁licensing	-12.4266
▁wheat	-12.4266
▁Career	-12.4266
▁utensils	-12.4267
▁concurrency	-12.4267
▁Easy	-12.4268
▁Wind	-12.4272
▁Protocol	-12.4276
oblastic	-12.4278
▁10;	-12.4281
Grid	-12.4282
▁Template	-12.4283
stack	-12.4283
▁Matrix	-12.4288
▁reloading	-12.4289
▁discovering	-12.4289
▁Pakistani	-12.4293
▁Sales	-12.4298
▁Silver	-12.4298
▁$100	-12.4299
▁Peter	-12.4302
▁Wild	-12.4303
▁sorts	-12.4306
▁scored	-12.4307
▁AD	-12.4308
▁Cirrhosis	-12.4315
▁Oxygen	-12.4315
▁Pericarditis	-12.4315
▁identical	-12.4315
▁precipitation	-12.4315
▁aorta	-12.4315
▁deformity	-12.4315
▁Catcher	-12.4315
▁lethargy	-12.4315
▁quantitative	-12.4316
▁weaker	-12.4317
▁Sincerely	-12.4317
▁Enterprise	-12.4318
ping	-12.4319
▁yellowing	-12.4319
▁requesting	-12.432
▁spatial	-12.4321
▁UIImage	-12.4322
▁translations	-12.4324
▁lets	-12.4326
99	-12.4328
▁differs	-12.4332
▁FOR	-12.4336
▁indirect	-12.4338
▁typo	-12.4339
▁alerts	-12.4342
▁Four	-12.4345
transform	-12.4353
▁awake	-12.4353
▁Message	-12.4354
▁outlines	-12.436
▁Ring	-12.436
▁playlist	-12.4363
▁repo	-12.4364
impact	-12.4364
▁compact	-12.4366
idovudine	-12.4366
▁Airbnb	-12.4366
▁CakePHP	-12.4366
▁Shakespeare	-12.4366
▁clever	-12.4366
▁expectancy	-12.4366
▁inhaling	-12.4366
▁frustrated	-12.4366
▁mature	-12.4366
▁neuralgia	-12.4366
▁rap	-12.4367
▁travelling	-12.4367
▁fluent	-12.4369
▁tracks	-12.4369
posts	-12.4371
)]	-12.4372
▁dirt	-12.4372
▁Random	-12.4372
▁Scott	-12.4374
ons	-12.4375
▁tagline	-12.4375
▁Browser	-12.4375
▁Shell	-12.4379
resource	-12.438
▁cute	-12.438
▁strokes	-12.4383
▁simulator	-12.4383
▁franchise	-12.4384
▁conference	-12.4386
▁percentile	-12.4387
▁Ali	-12.4387
▁Bundle	-12.4388
binding	-12.4396
▁2021.	-12.4398
▁scheduler	-12.4403
▁Ch	-12.4405
ps	-12.4406
▁dismiss	-12.4406
asp	-12.441
▁accents	-12.4412
ci	-12.4413
Match	-12.4415
flex	-12.4415
hydroxylase	-12.4415
ventricul	-12.4416
Microsoft	-12.4416
▁pleasant	-12.4417
▁imagination	-12.4417
▁cystitis	-12.4417
▁factual	-12.4417
▁committing	-12.4417
ad	-12.4417
▁Depression	-12.4418
▁roasted	-12.4418
▁coronavirus	-12.442
▁validity	-12.4423
▁forecast	-12.4424
▁cone	-12.4426
▁42	-12.4427
▁Metaboli	-12.4429
▁placeholders	-12.4432
▁Head	-12.4436
▁Parasites	-12.4437
▁123	-12.4438
▁mushrooms	-12.4439
▁gateway	-12.4441
▁Algorithm	-12.4443
rtery	-12.4448
Je	-12.4449
▁12.	-12.4452
▁Faci	-12.4455
▁god	-12.4458
ating	-12.4459
▁familiarize	-12.4463
▁hunt	-12.4463
▁assumes	-12.4464
speed	-12.4467
▁teenage	-12.4467
lipoproteinemia	-12.4468
▁Ventricul	-12.4468
▁chloride	-12.4468
▁profiling	-12.4468
▁Richard	-12.4468
▁Kendo	-12.4468
▁supernatural	-12.4468
▁interpersonal	-12.4468
▁Marvel	-12.4469
▁hypo	-12.447
▁soreness	-12.4471
>();	-12.4471
▁Solr	-12.4471
▁Boston	-12.4472
▁350	-12.4473
▁transformed	-12.4477
▁fluctuations	-12.4478
▁useEffect	-12.4479
▁attempted	-12.4482
▁probiotics	-12.4483
▁Van	-12.4484
▁hyperlink	-12.4486
▁museum	-12.4488
Password	-12.4489
▁modification	-12.4489
dy	-12.4489
diff	-12.4494
▁inhaler	-12.4496
▁wanting	-12.4496
▁doubt	-12.4497
▁mesh	-12.4499
Buffer	-12.4501
filled	-12.4501
60	-12.4502
▁revert	-12.4506
▁corporations	-12.4507
▁Expression	-12.4509
eptic	-12.451
▁$2	-12.4517
▁Cambodia	-12.4518
lambda	-12.452
Failed	-12.452
bottom	-12.452
edullary	-12.452
▁Pass	-12.452
▁kinetic	-12.452
▁sleek	-12.452
▁PyQt	-12.452
▁Kong	-12.452
▁taxation	-12.4521
▁THEN	-12.4522
▁OpenSSL	-12.4522
▁localized	-12.4522
▁footage	-12.4522
▁Gateway	-12.4523
▁UDP	-12.4524
▁boil	-12.4524
timeout	-12.4526
▁sealed	-12.4526
▁spinner	-12.4528
▁Negative	-12.4528
▁sulfur	-12.4528
▁inpatient	-12.4529
▁eaten	-12.4529
▁Remote	-12.453
▁relaxants	-12.4532
awareness	-12.4533
▁sqlite	-12.4534
▁Option	-12.4539
▁spreads	-12.454
▁CDN	-12.4541
▁applicant	-12.4543
loop	-12.4543
ah	-12.4545
ke	-12.4552
▁spell	-12.456
▁Correct	-12.456
▁convince	-12.4568
bash	-12.4569
branch	-12.4572
neurotransmitter	-12.4572
▁recurrence	-12.4572
▁retrieval	-12.4572
▁resonance	-12.4572
▁Major	-12.4572
▁Hepatic	-12.4574
other	-12.4574
▁authentic	-12.4575
▁Xbox	-12.4576
▁entertaining	-12.4576
▁leu	-12.4577
▁ate	-12.4577
▁Changing	-12.4577
objects	-12.4579
▁gamma	-12.4579
▁unsafe	-12.4579
▁overactive	-12.4581
▁circuits	-12.4583
▁Download	-12.4585
▁2019.	-12.4585
▁alveolar	-12.4592
izumab	-12.4594
▁transfers	-12.4605
▁planes	-12.4605
▁NA	-12.4607
install	-12.4609
▁avocados	-12.461
▁KEY	-12.4614
toString	-12.4614
200	-12.4614
▁myString	-12.4618
▁pins	-12.4619
▁te	-12.4619
eus	-12.4619
▁pads	-12.4619
▁lion	-12.462
▁powered	-12.4623
▁Club	-12.4623
▁guilt	-12.4623
maven	-12.4625
▁professions	-12.4625
girdle	-12.4625
▁Bangladesh	-12.4625
▁enthusiasm	-12.4625
▁Assistant	-12.4625
▁Dengue	-12.4625
▁eager	-12.4625
▁Tetra	-12.4625
▁skillet	-12.4625
▁threatened	-12.4625
ological	-12.4626
▁Lewis	-12.4627
▁textures	-12.4627
▁Film	-12.4629
▁Glan	-12.4632
▁backlinks	-12.4637
▁protons	-12.4637
▁adhere	-12.4638
▁Share	-12.4644
▁q	-12.4645
▁bracket	-12.4647
▁temple	-12.4647
▁apartment	-12.4648
▁gaps	-12.4648
▁Difference	-12.4649
▁pathways	-12.4649
Not	-12.4651
▁heel	-12.4652
DB	-12.4657
▁walks	-12.4671
▁heading	-12.4673
nsyndrom	-12.4677
▁Doxepin	-12.4677
▁debris	-12.4677
▁feces	-12.4677
▁Medicare	-12.4677
▁ganglia	-12.4677
▁shaking	-12.4677
▁Mistry	-12.4677
▁semen	-12.4677
▁enteritis	-12.4678
▁divine	-12.4678
▁Overflow	-12.4679
most	-12.4679
▁flexbox	-12.468
▁gastric	-12.4682
▁Vision	-12.4682
▁Special	-12.4683
▁shortly	-12.4684
▁darker	-12.4685
Point	-12.4685
pro	-12.4688
▁LinearLayout	-12.4688
▁accomplished	-12.4689
▁assisted	-12.4695
▁SLC	-12.4695
▁dispute	-12.4695
▁sink	-12.4697
▁speculation	-12.4699
▁spiders	-12.47
▁thousand	-12.4701
▁continent	-12.4701
▁thriller	-12.4702
cc	-12.4703
Body	-12.4706
Folder	-12.4717
cm	-12.4718
▁incompatible	-12.4718
▁Combine	-12.4723
▁correction	-12.4724
route	-12.4725
inea	-12.4727
tuximab	-12.4728
▁commenting	-12.4728
▁mimic	-12.473
▁lush	-12.473
▁urgency	-12.473
▁Colorado	-12.473
empty	-12.4731
▁advocat	-12.4731
hether	-12.4731
▁Sony	-12.4732
▁recreational	-12.4733
▁chin	-12.4735
▁recycled	-12.4736
▁LIMIT	-12.4736
▁tics	-12.474
▁sticky	-12.4741
▁exceeds	-12.4742
▁streets	-12.4744
▁bool	-12.4746
fits	-12.4747
▁alphabet	-12.4749
▁featured	-12.4749
ron	-12.4752
▁Adam	-12.4756
▁lipid	-12.4757
▁backward	-12.4757
▁UTI	-12.4757
▁Introduction	-12.4758
▁writes	-12.4758
Pick	-12.4759
ES	-12.4762
▁rituals	-12.4764
▁hips	-12.4766
ro	-12.4771
▁PL	-12.4776
▁Lich	-12.4777
Child	-12.4778
▁searched	-12.4778
▁Schizo	-12.4783
▁Klinefelter	-12.4783
▁contraception	-12.4783
▁enemy	-12.4783
▁simplicity	-12.4783
▁Cystic	-12.4783
▁cosmic	-12.4783
▁foreground	-12.4784
▁Ability	-12.4784
compose	-12.4784
ee	-12.4785
▁traverse	-12.4787
▁Celiac	-12.4787
▁nervousness	-12.4788
▁Quick	-12.479
▁Style	-12.4797
▁Awards	-12.4797
▁pending	-12.4797
▁News	-12.4798
▁Environmental	-12.4799
▁edited	-12.48
▁Gas	-12.48
▁accumulate	-12.4802
▁associations	-12.4804
▁Break	-12.4809
▁palette	-12.4812
▁5000	-12.4812
▁AM	-12.4814
▁Dan	-12.4816
▁Developers	-12.4819
▁Designer	-12.482
▁Cache	-12.4821
▁Capital	-12.4828
▁Southern	-12.483
ins	-12.4831
If	-12.4831
▁checkups	-12.4832
eliac	-12.4833
opharyngeal	-12.4834
▁cout	-12.4835
▁Arabia	-12.4836
ntestinal	-12.4836
▁instantiate	-12.4836
▁rude	-12.4837
▁Hospital	-12.4837
▁choking	-12.4837
▁quinoa	-12.4837
▁Gaucher	-12.4837
toggle	-12.4838
▁Estimate	-12.4838
artifactId	-12.4838
▁inhaled	-12.4839
Email	-12.4839
▁neither	-12.4839
cmd	-12.4839
▁bandwidth	-12.484
▁Mode	-12.4841
▁Gson	-12.4841
▁extensively	-12.4842
erious	-12.4843
▁lethal	-12.4844
▁translated	-12.4848
▁Diseases	-12.4849
▁carnitine	-12.485
▁Camera	-12.4851
▁Blob	-12.4851
▁pushed	-12.4853
▁poorly	-12.4853
groupId	-12.4855
▁Single	-12.4859
▁rainforest	-12.486
▁repetition	-12.486
▁mammal	-12.4866
▁4.0	-12.4866
Up	-12.4867
▁stranger	-12.4869
▁permit	-12.487
▁anticonvulsants	-12.4875
learn	-12.4875
▁adventures	-12.4881
▁timestamps	-12.4883
▁-->	-12.4889
▁ventricul	-12.4889
▁Osteoarthritis	-12.4891
▁cryptography	-12.4891
▁hemorrhagic	-12.4891
▁vertex	-12.4891
▁Albuterol	-12.4891
▁Knight	-12.4891
▁purpura	-12.4891
begin	-12.4891
▁hospitality	-12.4892
createElement	-12.4892
Johnson	-12.4893
▁teaches	-12.4893
▁stationary	-12.4897
▁CRM	-12.4897
▁CGL	-12.4898
▁outfit	-12.4903
▁sed	-12.4912
▁grads	-12.4914
▁ink	-12.4916
▁marketplace	-12.4916
▁charger	-12.4921
forming	-12.4921
▁fold	-12.4922
meta	-12.4924
commit	-12.4925
▁Mitochondria	-12.4929
▁traveled	-12.493
▁Cats	-12.4932
▁logistics	-12.4935
▁voices	-12.4942
DataFrame	-12.4942
params	-12.4942
▁indoor	-12.4944
▁Tenofovir	-12.4945
▁penicillin	-12.4945
▁poultry	-12.4945
▁regurgitation	-12.4945
▁Propranolol	-12.4945
▁Discuss	-12.4945
▁gameplay	-12.4946
▁personalities	-12.4946
innerHTML	-12.4946
fiber	-12.4946
▁repairing	-12.4947
▁Honda	-12.4947
▁stood	-12.4947
spinal	-12.4947
black	-12.4948
▁bitwise	-12.4949
▁endless	-12.4949
sen	-12.495
▁Subject	-12.4953
▁trailing	-12.4955
▁subdirectory	-12.4956
▁600	-12.4957
'];	-12.4961
▁priced	-12.4964
tar	-12.4967
▁computation	-12.4967
▁superior	-12.4968
▁minister	-12.4968
▁shampoo	-12.497
Load	-12.497
▁histogram	-12.4971
▁conditioning	-12.4972
▁polynomial	-12.4973
▁expects	-12.498
▁sells	-12.4986
(2,	-12.499
▁oxide	-12.4991
sleep	-12.4997
▁lag	-12.4998
▁superhero	-12.4999
▁Hydrocodone	-12.4999
▁Mometasone	-12.4999
▁Sublingual	-12.4999
▁Sulfate	-12.4999
▁circumference	-12.4999
▁porphyria	-12.4999
▁ulcerative	-12.4999
▁Porphyria	-12.4999
▁Field	-12.4999
▁NodeJS	-12.4999
▁bitter	-12.5001
Insert	-12.5001
assisted	-12.5001
INSERT	-12.5001
__(	-12.5001
▁Death	-12.5003
utoimmune	-12.5003
▁purely	-12.5003
▁refused	-12.5003
▁CUDA	-12.5003
kg	-12.5005
▁alcoholic	-12.5009
▁Split	-12.5009
▁offices	-12.5015
▁pigment	-12.5021
▁refugees	-12.5024
bo	-12.5024
▁Catholic	-12.5024
▁invite	-12.5024
▁lesion	-12.5025
▁scam	-12.5025
▁guard	-12.5025
lic	-12.5026
ier	-12.5026
▁bulb	-12.5027
▁Problem	-12.503
▁picking	-12.5033
Willi	-12.5036
▁Match	-12.504
▁argued	-12.5043
renal	-12.5043
oo	-12.5044
loc	-12.5049
.$	-12.5051
▁secur	-12.5052
▁unfortunate	-12.5052
▁transforming	-12.5053
▁Ampicillin	-12.5054
▁Camel	-12.5054
▁Emtricitabine	-12.5054
▁urinate	-12.5054
▁diversify	-12.5054
▁Godfather	-12.5054
▁teens	-12.5054
▁rape	-12.5054
▁Failed	-12.5054
▁Struts	-12.5055
▁afternoon	-12.5056
▁fructose	-12.5056
Weber	-12.5057
tech	-12.5057
myFunction	-12.5057
▁JDK	-12.5064
pass	-12.5067
▁parasitic	-12.5067
▁cmd	-12.5076
di	-12.5082
▁15,	-12.5083
▁senior	-12.5084
▁reviewed	-12.5084
Bar	-12.5088
orders	-12.509
dependent	-12.5092
▁vaccinations	-12.5097
▁bake	-12.5099
Show	-12.51
▁dys	-12.5105
23	-12.5105
▁Diphenhydramine	-12.5109
▁Levofloxacin	-12.5109
▁Possible	-12.5109
▁colonoscopy	-12.5109
▁delicate	-12.5109
▁prestigious	-12.5109
denburg	-12.5109
▁Ireland	-12.5109
▁rigidity	-12.5109
▁aciduria	-12.5109
▁Hong	-12.5109
Release	-12.5111
memory	-12.5111
▁LDAP	-12.5111
▁definitively	-12.5113
▁dragging	-12.5113
▁Edge	-12.5114
SS	-12.5114
▁chatbots	-12.5115
▁perceptions	-12.5116
▁toward	-12.5116
▁seasonal	-12.5122
▁interrupt	-12.5123
At	-12.5124
▁drawable	-12.5125
▁ultrasounds	-12.5125
▁coat	-12.5126
▁breasts	-12.5129
▁inch	-12.513
ow	-12.513
▁stains	-12.5131
Position	-12.5138
▁consultant	-12.5138
▁Arts	-12.5144
▁Spondylo	-12.5145
▁hub	-12.5147
▁Banana	-12.5147
▁Mat	-12.5151
▁Version	-12.5152
scroll	-12.5152
▁uric	-12.5153
▁vill	-12.5155
ka	-12.5162
▁hacks	-12.5163
▁Bladder	-12.5164
▁Melanoma	-12.5164
▁participation	-12.5164
▁folate	-12.5164
▁SSIS	-12.5164
▁Terraform	-12.5164
▁strep	-12.5165
bucket	-12.5166
small	-12.5167
▁CSE	-12.5169
▁Compile	-12.5169
▁Modern	-12.5169
▁Friends	-12.5172
Is	-12.5172
▁partially	-12.5172
▁February	-12.5172
▁pulled	-12.5174
▁rhythms	-12.5175
▁competitions	-12.518
▁woods	-12.5181
▁uploads	-12.5181
lactic	-12.5181
▁Gene	-12.5184
▁beam	-12.5184
▁evaluates	-12.5188
▁heartbeats	-12.5188
▁Tab	-12.5188
▁advertisement	-12.5191
headers	-12.5193
▁mount	-12.5194
▁wallet	-12.5197
▁cleaned	-12.5198
video	-12.5203
has	-12.5203
▁Bi	-12.5203
▁leukodystrophy	-12.5205
▁namespaces	-12.5206
▁Identity	-12.5206
11.2	-12.5208
▁Rock	-12.521
▁riding	-12.5212
▁liked	-12.5215
▁Coast	-12.5219
▁fishing	-12.5219
olycythemia	-12.5219
▁Albert	-12.5219
▁collaborating	-12.5219
▁whey	-12.5219
▁Russell	-12.5219
▁Caffeine	-12.5219
▁Everest	-12.5219
▁curiosity	-12.5219
▁perks	-12.522
▁mosquitoes	-12.522
▁Sanders	-12.522
▁dining	-12.522
▁listing	-12.5221
▁standalone	-12.5222
▁Everything	-12.5223
▁Module	-12.5224
▁marriages	-12.5224
▁bee	-12.5226
▁Additional	-12.5226
Enabled	-12.5227
▁(20	-12.5228
▁slides	-12.523
▁beard	-12.5232
▁Impact	-12.5234
▁exported	-12.5235
ardiac	-12.5236
lit	-12.524
4.	-12.5242
▁mocking	-12.5244
▁blur	-12.5244
socket	-12.5248
▁caption	-12.5249
ig	-12.5251
▁UUID	-12.5254
▁tofu	-12.526
▁bleach	-12.5263
cap	-12.5267
▁55	-12.527
▁isolate	-12.5271
▁Retin	-12.5271
▁IAM	-12.5272
▁Shall	-12.5273
▁defensive	-12.5273
▁constructive	-12.5274
▁Developing	-12.5275
▁malabsorption	-12.5275
▁ruling	-12.5275
▁tkinter	-12.5275
▁Toronto	-12.5275
▁territorial	-12.5275
▁Adreno	-12.5275
▁emitted	-12.5275
▁Necro	-12.5275
▁superclass	-12.5276
▁butterfly	-12.5276
▁tightness	-12.5277
▁Jupiter	-12.5277
▁IgA	-12.5278
▁cURL	-12.5278
▁brightness	-12.5278
▁datatype	-12.528
4)	-12.5286
Directory	-12.5286
rm	-12.5287
fitting	-12.5289
▁flowing	-12.5293
▁AR	-12.5293
>>	-12.5296
▁Fe	-12.53
▁organizational	-12.5301
▁toppings	-12.5305
▁pharmaceutical	-12.5306
▁PID	-12.5307
▁restriction	-12.5307
▁Lymph	-12.5309
▁houses	-12.5312
▁Variable	-12.5313
▁aneurysms	-12.5316
▁Secret	-12.5317
▁bonding	-12.5319
▁Poison	-12.5319
▁Perform	-12.532
▁reforms	-12.5321
▁bottles	-12.5321
▁Tim	-12.5322
▁landscapes	-12.5325
/2	-12.5326
▁Factory	-12.5326
▁opponents	-12.5327
▁erase	-12.5327
▁clip	-12.5327
1`	-12.5331
▁Taiwan	-12.5331
▁Gilbert	-12.5331
▁Sweden	-12.5331
▁puppies	-12.5331
▁fridge	-12.5331
▁puncture	-12.5331
▁Arctic	-12.5332
▁grilled	-12.5332
▁automating	-12.5332
-9	-12.5333
debug	-12.5333
▁abnormality	-12.5334
vitamin	-12.5335
▁Reactive	-12.5336
income	-12.5336
▁WooCommerce	-12.5336
ker	-12.534
▁unicode	-12.5341
security	-12.5348
1000	-12.5355
▁coefficient	-12.5361
▁semicolon	-12.5362
▁ghost	-12.5363
rounded	-12.5364
▁heated	-12.5369
house	-12.5375
terstitial	-12.538
▁Jon	-12.5381
▁td	-12.5383
▁obvious	-12.5388
▁fifth	-12.5388
▁melody	-12.5388
▁spondylitis	-12.5388
▁mortality	-12.5388
▁mythology	-12.5388
▁Shopify	-12.5388
▁ovary	-12.5388
▁Growth	-12.5388
▁Webpack	-12.5388
▁computational	-12.5389
▁overnight	-12.5389
▁feasible	-12.5389
▁stressful	-12.539
-6	-12.5391
▁Improved	-12.5391
▁forgotten	-12.5392
ECG	-12.5392
▁Prade	-12.5392
Where	-12.5392
dense	-12.5393
▁EJB	-12.5393
▁sticking	-12.5394
▁failures	-12.5394
▁Square	-12.5395
▁Invalid	-12.5395
▁tied	-12.5396
conn	-12.5398
▁impairments	-12.5398
▁Che	-12.5399
Store	-12.5403
def	-12.5403
▁Screen	-12.5409
▁blanket	-12.5416
6,	-12.5416
▁victim	-12.5418
▁marketplaces	-12.5419
▁bicycle	-12.5419
byte	-12.5423
▁DVD	-12.5423
ni	-12.5424
▁turtle	-12.5424
▁nth	-12.5431
▁VR	-12.5437
▁backed	-12.5439
▁Tool	-12.5439
pop	-12.5442
▁Pregnan	-12.5445
Fragile	-12.5445
▁Diazepam	-12.5445
▁Erythema	-12.5445
▁Fascinating	-12.5445
▁Player	-12.5445
▁gangrene	-12.5445
▁groceries	-12.5445
▁sanitation	-12.5445
▁Neuropathy	-12.5445
▁Renaissance	-12.5445
▁romance	-12.5445
▁predisposition	-12.5445
▁WHEN	-12.5446
▁globalization	-12.5447
▁opposed	-12.5447
▁Renewable	-12.5447
▁128	-12.5449
▁CONVERT	-12.5449
Example	-12.5449
white	-12.5449
library	-12.5449
▁amyloid	-12.545
global	-12.545
▁disc	-12.5454
▁squats	-12.5455
▁[2,	-12.5457
▁remained	-12.5459
force	-12.546
section	-12.5462
▁collisions	-12.5462
▁Fast	-12.5464
rated	-12.5467
▁typed	-12.547
ish	-12.5476
▁teenager	-12.5477
▁pathway	-12.5479
▁professionally	-12.5479
▁pipes	-12.5484
▁ComboBox	-12.5484
▁holder	-12.549
▁almonds	-12.5492
▁Germ	-12.5493
-10	-12.5493
▁adolescence	-12.5502
▁botulism	-12.5502
▁enemies	-12.5502
▁Guilla	-12.5502
▁Swiss	-12.5502
▁blogging	-12.5502
▁breathtaking	-12.5502
▁Parent	-12.5503
▁12,	-12.5503
▁Benz	-12.5503
▁plastics	-12.5506
▁generalized	-12.5507
connection	-12.5507
expression	-12.5507
▁arrange	-12.5511
enable	-12.5513
▁discusses	-12.5514
▁populated	-12.5514
▁admire	-12.5516
▁optical	-12.5519
▁Mo	-12.5521
etin	-12.5523
▁fur	-12.5528
Columns	-12.5529
▁winner	-12.5533
▁manipulated	-12.5533
▁chunk	-12.5533
▁interpreter	-12.5537
▁philosophers	-12.5538
▁breaths	-12.5539
▁therapists	-12.5539
▁transformer	-12.554
▁Redirect	-12.5541
▁shortage	-12.5545
▁rush	-12.5545
ervical	-12.5546
▁noises	-12.5546
Current	-12.5546
▁rational	-12.5546
▁trap	-12.5547
▁floods	-12.5548
▁climb	-12.5548
▁codec	-12.5555
▁remembered	-12.5556
▁COM	-12.5559
▁Endometri	-12.5559
omerulonephritis	-12.5559
▁Methotrexate	-12.5559
▁Niacin	-12.5559
▁psychotherapy	-12.5559
▁laughter	-12.5559
▁epidermoly	-12.556
▁Freelancer	-12.556
▁multimedia	-12.556
▁Laser	-12.556
▁registers	-12.556
▁Dream	-12.556
▁chickenpox	-12.5561
▁civilizations	-12.5561
▁PhoneGap	-12.5562
▁Apart	-12.5563
▁Investing	-12.5565
▁pulling	-12.5566
Home	-12.5566
▁tr	-12.5567
▁alike	-12.5567
▁mom	-12.5567
▁Singleton	-12.5569
▁ships	-12.557
▁tower	-12.557
}`	-12.5572
▁hunting	-12.5573
▁cores	-12.5573
▁adopting	-12.5575
▁Learn	-12.5577
▁Methyl	-12.5577
▁dispatch	-12.5578
▁antipsychotics	-12.5579
Frame	-12.5579
▁Talk	-12.5581
▁gcc	-12.5582
▁repairs	-12.5582
▁concentrate	-12.5587
▁Repository	-12.5588
stine	-12.5595
Python	-12.5596
▁Diet	-12.5597
▁10-	-12.5597
▁complaints	-12.5598
▁setter	-12.5599
▁Fol	-12.56
fit	-12.5604
▁partitions	-12.5608
▁Cook	-12.5608
▁NLP	-12.5611
▁dosages	-12.5612
▁29	-12.5612
▁misuse	-12.5613
work	-12.5614
iemann	-12.5617
▁Dexamethasone	-12.5617
▁Friedreich	-12.5617
▁Granisetron	-12.5617
▁Tretinoin	-12.5617
▁synthetase	-12.5617
▁Waar	-12.5617
▁SSRS	-12.5617
▁actresses	-12.5618
▁squared	-12.5618
▁aliases	-12.5618
disable	-12.5618
▁Tkinter	-12.5619
▁ruled	-12.5619
▁stiff	-12.5619
▁Pattern	-12.5619
▁grateful	-12.5619
▁Mysql	-12.562
▁Universal	-12.562
thrombocytopenia	-12.5622
jdbc	-12.5622
▁NBA	-12.5622
hidden	-12.5623
▁bots	-12.5625
mask	-12.5629
▁oats	-12.5629
▁Audio	-12.563
▁looping	-12.5634
instance	-12.564
▁Admin	-12.5641
astrointestinal	-12.5641
▁About	-12.5643
▁hint	-12.5646
blocking	-12.5648
Parameters	-12.5648
▁eruption	-12.565
▁tablespoon	-12.565
▁brace	-12.565
▁spasm	-12.5652
building	-12.5656
pulmonary	-12.5659
ists	-12.5663
van	-12.5665
epiphyseal	-12.5666
▁Default	-12.5666
Address	-12.567
4,	-12.5673
▁settle	-12.5673
▁Nigeria	-12.5674
▁mitochondria	-12.5674
buffer	-12.5675
estational	-12.5675
▁Drupal	-12.5675
▁encephalitis	-12.5675
▁narcolepsy	-12.5675
▁psyllium	-12.5675
▁Seattle	-12.5675
▁chopped	-12.5675
▁shy	-12.5676
▁Unlike	-12.5676
▁filing	-12.5677
▁Groovy	-12.5678
▁ATP	-12.568
▁transit	-12.568
▁governance	-12.5681
economic	-12.5681
▁behalf	-12.5685
talk	-12.5685
▁Fall	-12.5688
▁Functions	-12.569
cost	-12.5692
▁Arrays	-12.5693
▁Utilize	-12.5693
Task	-12.5694
ated	-12.5694
children	-12.5694
▁Desktop	-12.5695
chart	-12.5695
▁marking	-12.5698
Ref	-12.57
▁crowd	-12.5701
▁existed	-12.5703
▁ringing	-12.5713
American	-12.5715
▁vendor	-12.572
ani	-12.5723
▁Extra	-12.5724
▁clipboard	-12.5726
curl	-12.5726
▁du	-12.5727
▁Mono	-12.5728
Title	-12.573
▁draining	-12.573
cing	-12.5731
▁proportional	-12.5734
▁Chemical	-12.5734
▁cavities	-12.5734
▁plural	-12.5734
▁restoring	-12.5734
▁deprivation	-12.5734
▁neoplasia	-12.5734
▁mentorship	-12.5734
▁1980	-12.5734
▁bitten	-12.5734
▁centralized	-12.5735
▁Arizona	-12.5735
require	-12.5735
▁convolution	-12.5736
▁Ref	-12.5736
1.0	-12.5737
▁Ford	-12.5738
lines	-12.5739
▁scalar	-12.5739
canvas	-12.574
▁loving	-12.5741
writer	-12.5741
▁problematic	-12.5741
▁scars	-12.5742
=1	-12.5742
compile	-12.5745
▁Polio	-12.5746
▁auth	-12.5747
▁hanging	-12.575
▁trips	-12.5751
▁3.5	-12.5752
pack	-12.5753
▁prompted	-12.5759
▁desk	-12.5763
▁arteritis	-12.5764
▁withdraw	-12.5765
▁loader	-12.5766
▁cabinet	-12.5767
▁ventricle	-12.5767
▁Olympic	-12.5768
▁innovations	-12.577
▁Christians	-12.5773
sensitive	-12.5777
▁HH	-12.578
▁disruptions	-12.5782
▁completes	-12.5782
0000	-12.5783
"];	-12.5783
▁Ab	-12.5785
▁expands	-12.5788
▁indexed	-12.579
ED	-12.5792
▁categorize	-12.5792
Chart	-12.5792
▁awkward	-12.5792
▁Budesonide	-12.5793
▁Xiaomi	-12.5793
▁cryptocurrency	-12.5793
▁desirable	-12.5793
▁prioritizing	-12.5793
▁quizzes	-12.5793
▁responsibly	-12.5793
▁fungi	-12.5793
▁stolen	-12.5793
▁captain	-12.5793
▁reflexes	-12.5793
▁loses	-12.5794
▁epic	-12.5794
▁jeans	-12.5795
▁Excellent	-12.5795
▁revealed	-12.5796
handle	-12.5797
▁dried	-12.5797
▁diving	-12.5799
blank	-12.5799
▁stressed	-12.58
▁OCD	-12.5803
▁suffix	-12.5804
enabled	-12.5804
▁successes	-12.5805
▁axios	-12.5806
▁prey	-12.5809
master	-12.5814
▁Automation	-12.5816
Integer	-12.5822
▁biologic	-12.5824
▁assertion	-12.5828
▁politician	-12.5828
▁cancellation	-12.5828
▁quarter	-12.5829
▁INT	-12.5831
▁subdomain	-12.5831
▁Sri	-12.5832
▁owned	-12.5832
ab	-12.5833
▁interpreting	-12.5838
▁slowed	-12.584
▁denominations	-12.584
▁murder	-12.584
▁carbonate	-12.5841
Download	-12.5843
▁di	-12.5846
▁Drop	-12.5849
mock	-12.5851
separated	-12.5851
▁offerings	-12.5851
▁asbestos	-12.5851
▁Church	-12.5852
▁intriguing	-12.5852
▁remedy	-12.5852
▁diameter	-12.5852
▁Airtel	-12.5852
Font	-12.5852
▁Personality	-12.5852
▁breaches	-12.5853
▁laid	-12.5854
Chiari	-12.5855
▁presses	-12.5855
▁synthesis	-12.5855
▁constructed	-12.5856
FF	-12.5858
Category	-12.5858
congenital	-12.5859
performance	-12.5859
▁chorion	-12.586
binary	-12.5862
▁assigns	-12.5862
▁2005	-12.5864
NLP	-12.5864
▁Ma	-12.5864
▁Menk	-12.5864
▁unexpectedly	-12.5866
▁forgetting	-12.5867
▁fetching	-12.5868
▁hired	-12.5868
▁Val	-12.5869
Excel	-12.5881
256	-12.5882
▁Normal	-12.5887
▁antonym	-12.5887
▁embedding	-12.5888
▁prayer	-12.5889
▁Category	-12.5891
▁swim	-12.5892
▁Girl	-12.5894
choice	-12.5894
▁Objects	-12.5896
▁queryset	-12.5898
▁Room	-12.5898
minal	-12.5899
5-	-12.5901
▁proactive	-12.591
pl	-12.5911
▁lawyers	-12.5911
▁ideology	-12.5911
▁misinformation	-12.5911
▁Colorectal	-12.5911
▁<!--	-12.5911
▁Patent	-12.5911
▁Usher	-12.5911
▁hammer	-12.5911
▁Thorac	-12.5912
▁Nile	-12.5912
▁200,000	-12.5912
▁NHibernate	-12.5913
▁bi	-12.5913
ify	-12.5914
▁karma	-12.5914
▁Signs	-12.5915
▁mainstream	-12.5915
▁Rio	-12.5916
"),	-12.5917
▁shining	-12.5917
Binding	-12.5917
▁Ice	-12.5918
yaml	-12.5918
▁fortified	-12.592
▁mp	-12.5921
▁cooler	-12.5925
▁implementations	-12.5925
▁granuloma	-12.5926
models	-12.5931
▁USD	-12.5932
▁Bring	-12.5934
▁[[	-12.5939
iform	-12.594
▁workarounds	-12.5941
▁partitioning	-12.5943
spec	-12.5948
▁leftover	-12.5949
▁Maha	-12.595
▁Ear	-12.5951
▁alliances	-12.5953
▁portrait	-12.5953
▁toast	-12.5956
▁sustain	-12.5957
▁Preferences	-12.5958
Write	-12.5958
▁migrations	-12.5959
▁Paul	-12.5959
▁joins	-12.5962
taking	-12.5965
▁eclipse	-12.5966
▁bark	-12.5967
▁fitting	-12.5968
▁invisible	-12.5969
▁Bisacodyl	-12.5971
▁Metformin	-12.5971
▁Naltrexone	-12.5971
▁Psoriasis	-12.5971
▁beneath	-12.5971
▁endometriosis	-12.5971
▁grew	-12.5971
▁dwarfism	-12.5971
▁residential	-12.5971
▁vulgaris	-12.5971
▁basically	-12.5972
▁XAMPP	-12.5973
▁portrayed	-12.5973
▁Micro	-12.5974
▁Tap	-12.5975
▁slash	-12.5975
▁muco	-12.5976
help	-12.5976
▁finite	-12.5976
▁Push	-12.5978
responsive	-12.5979
dynamic	-12.5979
▁von	-12.5979
▁BJP	-12.5981
▁LEFT	-12.5982
▁somewhat	-12.5984
Next	-12.5985
▁Increase	-12.5988
▁ionic	-12.5989
▁findViewById	-12.5989
▁shifting	-12.5991
▁worship	-12.5996
▁resonate	-12.5996
▁swift	-12.5997
sample	-12.6001
..."	-12.6001
▁Photos	-12.6002
Cache	-12.6003
▁partnership	-12.6009
▁modifier	-12.601
stumbled	-12.6012
▁seller	-12.6013
▁RDD	-12.6014
▁financially	-12.6016
ST	-12.6022
▁demands	-12.6024
▁spino	-12.6026
operative	-12.6026
haredPreferences	-12.6027
▁preventable	-12.6027
▁atmospher	-12.6028
▁Disney	-12.6031
▁Busulfan	-12.6031
▁Corporation	-12.6031
▁Osteoporosis	-12.6031
▁behaviour	-12.6031
▁mononeuropathy	-12.6031
▁obese	-12.6031
▁pregnancies	-12.6031
▁Canavan	-12.6031
▁Neomycin	-12.6031
▁MBBS	-12.6032
▁bedding	-12.6032
▁Jest	-12.6033
▁Jupyter	-12.6034
(()	-12.6034
▁Quantum	-12.6034
▁appending	-12.6036
▁Together	-12.6036
how	-12.6037
0.	-12.6037
▁planned	-12.6038
Please	-12.6039
▁evoke	-12.6041
▁crying	-12.6046
▁corrected	-12.6049
Bytes	-12.6051
▁attacking	-12.6051
▁packed	-12.6053
▁newspapers	-12.6053
▁declarations	-12.6054
▁weekends	-12.6057
▁scrape	-12.6062
Call	-12.6062
▁TO	-12.6065
▁stricture	-12.6069
▁Sam	-12.607
▁underscore	-12.6074
▁quest	-12.6074
▁SAT	-12.6075
▁boosting	-12.6086
Target	-12.6087
reheat	-12.6087
▁Med	-12.6087
▁Statement	-12.6087
[0].	-12.6087
90	-12.6088
▁Sports	-12.6089
▁neutrons	-12.609
▁Elizabeth	-12.6092
[...]
